#include "magic_wand_model_data.h"


// We need to keep the data array aligned on some architectures.

#ifdef __has_attribute

#define HAVE_ATTRIBUTE(x) __has_attribute(x)

#else

#define HAVE_ATTRIBUTE(x) 0

#endif

#if HAVE_ATTRIBUTE(aligned) || (defined(__GNUC__) && !defined(__clang__))

#define DATA_ALIGN_ATTRIBUTE __attribute__((aligned(4)))

#else

#define DATA_ALIGN_ATTRIBUTE

#endif


const unsigned char g_magic_wand_model_data[] DATA_ALIGN_ATTRIBUTE = {

  
  0x08, 0x00, 0x00, 0x00, 0x54, 0x46, 0x4c, 0x33, 0x62, 0xff, 0xff, 0xff,
  0x03, 0x00, 0x00, 0x00, 0x10, 0x00, 0x00, 0x00, 0x24, 0x00, 0x00, 0x00,
  0x78, 0x00, 0x00, 0x00, 0x24, 0x00, 0x00, 0x00, 0x05, 0x00, 0x00, 0x00,
  0x78, 0x05, 0x00, 0x00, 0xb0, 0x04, 0x00, 0x00, 0xe0, 0x02, 0x00, 0x00,
  0x60, 0x02, 0x00, 0x00, 0x54, 0x01, 0x00, 0x00, 0x01, 0x00, 0x00, 0x00,
  0x78, 0x00, 0x00, 0x00, 0x13, 0x00, 0x00, 0x00, 0x90, 0x2f, 0x00, 0x00,
  0x8c, 0x2f, 0x00, 0x00, 0x98, 0x2e, 0x00, 0x00, 0x28, 0x2e, 0x00, 0x00,
  0xbc, 0x2d, 0x00, 0x00, 0x6c, 0x11, 0x00, 0x00, 0x98, 0x10, 0x00, 0x00,
  0xbc, 0x0e, 0x00, 0x00, 0x60, 0x06, 0x00, 0x00, 0xfc, 0x05, 0x00, 0x00,
  0x78, 0x05, 0x00, 0x00, 0x64, 0x2f, 0x00, 0x00, 0x60, 0x2f, 0x00, 0x00,
  0x5c, 0x2f, 0x00, 0x00, 0x58, 0x2f, 0x00, 0x00, 0x54, 0x2f, 0x00, 0x00,
  0x50, 0x2f, 0x00, 0x00, 0x4c, 0x2f, 0x00, 0x00, 0x48, 0x2f, 0x00, 0x00,
  0x0f, 0x00, 0x00, 0x00, 0x4d, 0x4c, 0x49, 0x52, 0x20, 0x43, 0x6f, 0x6e,
  0x76, 0x65, 0x72, 0x74, 0x65, 0x64, 0x2e, 0x00, 0x00, 0x00, 0x0e, 0x00,
  0x18, 0x00, 0x04, 0x00, 0x08, 0x00, 0x0c, 0x00, 0x10, 0x00, 0x14, 0x00,
  0x0e, 0x00, 0x00, 0x00, 0x14, 0x00, 0x00, 0x00, 0x5c, 0x00, 0x00, 0x00,
  0x60, 0x00, 0x00, 0x00, 0x64, 0x00, 0x00, 0x00, 0x84, 0x00, 0x00, 0x00,
  0x12, 0x00, 0x00, 0x00, 0xc0, 0x2e, 0x00, 0x00, 0x5c, 0x2e, 0x00, 0x00,
  0xb4, 0x2d, 0x00, 0x00, 0x58, 0x2d, 0x00, 0x00, 0xf0, 0x2c, 0x00, 0x00,
  0x9c, 0x10, 0x00, 0x00, 0xc0, 0x0f, 0x00, 0x00, 0xe4, 0x0d, 0x00, 0x00,
  0xa0, 0x05, 0x00, 0x00, 0x3c, 0x05, 0x00, 0x00, 0xb0, 0x04, 0x00, 0x00,
  0xe8, 0x03, 0x00, 0x00, 0x38, 0x03, 0x00, 0x00, 0xa4, 0x02, 0x00, 0x00,
  0x10, 0x02, 0x00, 0x00, 0x90, 0x01, 0x00, 0x00, 0xfc, 0x00, 0x00, 0x00,
  0x80, 0x00, 0x00, 0x00, 0x01, 0x00, 0x00, 0x00, 0x00, 0x00, 0x00, 0x00,
  0x01, 0x00, 0x00, 0x00, 0x11, 0x00, 0x00, 0x00, 0x08, 0x00, 0x00, 0x00,
  0x1c, 0x04, 0x00, 0x00, 0x58, 0x03, 0x00, 0x00, 0xc8, 0x02, 0x00, 0x00,
  0x24, 0x02, 0x00, 0x00, 0xac, 0x01, 0x00, 0x00, 0x10, 0x01, 0x00, 0x00,
  0x94, 0x00, 0x00, 0x00, 0x10, 0x00, 0x00, 0x00, 0x04, 0x00, 0x00, 0x00,
  0x6d, 0x61, 0x69, 0x6e, 0x00, 0x00, 0x00, 0x00, 0x8e, 0xff, 0xff, 0xff,
  0x00, 0x00, 0x00, 0x09, 0x04, 0x00, 0x00, 0x00, 0x1c, 0x00, 0x00, 0x00,
  0x10, 0x00, 0x00, 0x00, 0x04, 0x00, 0x00, 0x00, 0x92, 0xd2, 0xff, 0xff,
  0x00, 0x00, 0x80, 0x3f, 0x01, 0x00, 0x00, 0x00, 0x11, 0x00, 0x00, 0x00,
  0x01, 0x00, 0x00, 0x00, 0x10, 0x00, 0x00, 0x00, 0xf6, 0xfb, 0xff, 0xff,
  0x00, 0x00, 0x00, 0x19, 0x01, 0x00, 0x00, 0x00, 0x12, 0xd2, 0xff, 0xff,
  0x10, 0x00, 0x00, 0x00, 0x12, 0x00, 0x00, 0x00, 0x14, 0x00, 0x00, 0x00,
  0x20, 0x00, 0x00, 0x00, 0x02, 0x00, 0x00, 0x00, 0x01, 0x00, 0x00, 0x00,
  0x02, 0x00, 0x00, 0x00, 0x08, 0x00, 0x00, 0x00, 0x49, 0x64, 0x65, 0x6e,
  0x74, 0x69, 0x74, 0x79, 0x00, 0x00, 0x00, 0x00, 0x4c, 0xd2, 0xff, 0xff,
  0x00, 0x00, 0x0e, 0x00, 0x18, 0x00, 0x08, 0x00, 0x0c, 0x00, 0x10, 0x00,
  0x07, 0x00, 0x14, 0x00, 0x0e, 0x00, 0x00, 0x00, 0x00, 0x00, 0x00, 0x08,
  0x03, 0x00, 0x00, 0x00, 0x18, 0x00, 0x00, 0x00, 0x0c, 0x00, 0x00, 0x00,
  0x04, 0x00, 0x00, 0x00, 0x20, 0xd2, 0xff, 0xff, 0x01, 0x00, 0x00, 0x00,
  0x10, 0x00, 0x00, 0x00, 0x03, 0x00, 0x00, 0x00, 0x0f, 0x00, 0x00, 0x00,
  0x05, 0x00, 0x00, 0x00, 0x02, 0x00, 0x00, 0x00, 0x8a, 0xd2, 0xff, 0xff,
  0x10, 0x00, 0x00, 0x00, 0x11, 0x00, 0x00, 0x00, 0x14, 0x00, 0x00, 0x00,
  0x30, 0x00, 0x00, 0x00, 0x02, 0x00, 0x00, 0x00, 0x01, 0x00, 0x00, 0x00,
  0x02, 0x00, 0x00, 0x00, 0x1a, 0x00, 0x00, 0x00, 0x73, 0x65, 0x71, 0x75,
  0x65, 0x6e, 0x74, 0x69, 0x61, 0x6c, 0x2f, 0x64, 0x65, 0x6e, 0x73, 0x65,
  0x5f, 0x31, 0x2f, 0x42, 0x69, 0x61, 0x73, 0x41, 0x64, 0x64, 0x00, 0x00,
  0x7c, 0xd2, 0xff, 0xff, 0xd6, 0xfd, 0xff, 0xff, 0x00, 0x00, 0x00, 0x08,
  0x03, 0x00, 0x00, 0x00, 0x24, 0x00, 0x00, 0x00, 0x18, 0x00, 0x00, 0x00,
  0x0c, 0x00, 0x00, 0x00, 0x00, 0x00, 0x06, 0x00, 0x08, 0x00, 0x07, 0x00,
  0x06, 0x00, 0x00, 0x00, 0x00, 0x00, 0x00, 0x01, 0x01, 0x00, 0x00, 0x00,
  0x0f, 0x00, 0x00, 0x00, 0x03, 0x00, 0x00, 0x00, 0x0e, 0x00, 0x00, 0x00,
  0x04, 0x00, 0x00, 0x00, 0x01, 0x00, 0x00, 0x00, 0xfe, 0xfc, 0xff, 0xff,
  0x00, 0x00, 0x00, 0x09, 0x01, 0x00, 0x00, 0x00, 0x1a, 0xd3, 0xff, 0xff,
  0x10, 0x00, 0x00, 0x00, 0x10, 0x00, 0x00, 0x00, 0x14, 0x00, 0x00, 0x00,
  0x2c, 0x00, 0x00, 0x00, 0x02, 0x00, 0x00, 0x00, 0x01, 0x00, 0x00, 0x00,
  0x10, 0x00, 0x00, 0x00, 0x15, 0x00, 0x00, 0x00, 0x73, 0x65, 0x71, 0x75,
  0x65, 0x6e, 0x74, 0x69, 0x61, 0x6c, 0x2f, 0x64, 0x65, 0x6e, 0x73, 0x65,
  0x2f, 0x52, 0x65, 0x6c, 0x75, 0x00, 0x00, 0x00, 0x60, 0xd3, 0xff, 0xff,
  0x00, 0x00, 0x0a, 0x00, 0x10, 0x00, 0x04, 0x00, 0x08, 0x00, 0x0c, 0x00,
  0x0a, 0x00, 0x00, 0x00, 0x02, 0x00, 0x00, 0x00, 0x10, 0x00, 0x00, 0x00,
  0x04, 0x00, 0x00, 0x00, 0x01, 0x00, 0x00, 0x00, 0x0e, 0x00, 0x00, 0x00,
  0x02, 0x00, 0x00, 0x00, 0x0d, 0x00, 0x00, 0x00, 0x03, 0x00, 0x00, 0x00,
  0x7a, 0xfd, 0xff, 0xff, 0x00, 0x00, 0x00, 0x16, 0x01, 0x00, 0x00, 0x00,
  0x96, 0xd3, 0xff, 0xff, 0x10, 0x00, 0x00, 0x00, 0x0f, 0x00, 0x00, 0x00,
  0x14, 0x00, 0x00, 0x00, 0x30, 0x00, 0x00, 0x00, 0x02, 0x00, 0x00, 0x00,
  0x01, 0x00, 0x00, 0x00, 0x70, 0x00, 0x00, 0x00, 0x1a, 0x00, 0x00, 0x00,
  0x73, 0x65, 0x71, 0x75, 0x65, 0x6e, 0x74, 0x69, 0x61, 0x6c, 0x2f, 0x66,
  0x6c, 0x61, 0x74, 0x74, 0x65, 0x6e, 0x2f, 0x52, 0x65, 0x73, 0x68, 0x61,
  0x70, 0x65, 0x00, 0x00, 0x88, 0xd3, 0xff, 0xff, 0xe2, 0xfe, 0xff, 0xff,
  0x00, 0x00, 0x00, 0x05, 0x01, 0x00, 0x00, 0x00, 0x38, 0x00, 0x00, 0x00,
  0x2c, 0x00, 0x00, 0x00, 0x14, 0x00, 0x00, 0x00, 0x00, 0x00, 0x0e, 0x00,
  0x14, 0x00, 0x00, 0x00, 0x10, 0x00, 0x0c, 0x00, 0x08, 0x00, 0x04, 0x00,
  0x0e, 0x00, 0x00, 0x00, 0x03, 0x00, 0x00, 0x00, 0x01, 0x00, 0x00, 0x00,
  0x03, 0x00, 0x00, 0x00, 0x01, 0x00, 0x00, 0x00, 0x01, 0x00, 0x00, 0x00,
  0x0d, 0x00, 0x00, 0x00, 0x01, 0x00, 0x00, 0x00, 0x0c, 0x00, 0x00, 0x00,
  0x26, 0xd4, 0xff, 0xff, 0x10, 0x00, 0x00, 0x00, 0x0e, 0x00, 0x00, 0x00,
  0x1c, 0x00, 0x00, 0x00, 0x40, 0x00, 0x00, 0x00, 0x04, 0x00, 0x00, 0x00,
  0x01, 0x00, 0x00, 0x00, 0x07, 0x00, 0x00, 0x00, 0x01, 0x00, 0x00, 0x00,
  0x10, 0x00, 0x00, 0x00, 0x22, 0x00, 0x00, 0x00, 0x73, 0x65, 0x71, 0x75,
  0x65, 0x6e, 0x74, 0x69, 0x61, 0x6c, 0x2f, 0x6d, 0x61, 0x78, 0x5f, 0x70,
  0x6f, 0x6f, 0x6c, 0x69, 0x6e, 0x67, 0x32, 0x64, 0x5f, 0x31, 0x2f, 0x4d,
  0x61, 0x78, 0x50, 0x6f, 0x6f, 0x6c, 0x00, 0x00, 0x28, 0xd4, 0xff, 0xff,
  0xc2, 0xfe, 0xff, 0xff, 0x00, 0x00, 0x00, 0x01, 0x24, 0x00, 0x00, 0x00,
  0x18, 0x00, 0x00, 0x00, 0x04, 0x00, 0x00, 0x00, 0xb4, 0xfe, 0xff, 0xff,
  0x01, 0x00, 0x00, 0x00, 0x01, 0x00, 0x00, 0x00, 0x00, 0x00, 0x00, 0x01,
  0x01, 0x00, 0x00, 0x00, 0x0c, 0x00, 0x00, 0x00, 0x03, 0x00, 0x00, 0x00,
  0x0b, 0x00, 0x00, 0x00, 0x07, 0x00, 0x00, 0x00, 0x09, 0x00, 0x00, 0x00,
  0xb6, 0xd4, 0xff, 0xff, 0x10, 0x00, 0x00, 0x00, 0x0d, 0x00, 0x00, 0x00,
  0x1c, 0x00, 0x00, 0x00, 0x2c, 0x00, 0x00, 0x00, 0x04, 0x00, 0x00, 0x00,
  0x01, 0x00, 0x00, 0x00, 0x15, 0x00, 0x00, 0x00, 0x01, 0x00, 0x00, 0x00,
  0x10, 0x00, 0x00, 0x00, 0x0c, 0x00, 0x00, 0x00, 0x74, 0x66, 0x6c, 0x2e,
  0x63, 0x6f, 0x6e, 0x76, 0x5f, 0x32, 0x64, 0x31, 0x00, 0x00, 0x00, 0x00,
  0xfc, 0xd4, 0xff, 0xff, 0x00, 0x00, 0x0e, 0x00, 0x1a, 0x00, 0x08, 0x00,
  0x0c, 0x00, 0x10, 0x00, 0x07, 0x00, 0x14, 0x00, 0x0e, 0x00, 0x00, 0x00,
  0x00, 0x00, 0x00, 0x05, 0x01, 0x00, 0x00, 0x00, 0x3c, 0x00, 0x00, 0x00,
  0x30, 0x00, 0x00, 0x00, 0x14, 0x00, 0x00, 0x00, 0x00, 0x00, 0x0e, 0x00,
  0x18, 0x00, 0x17, 0x00, 0x10, 0x00, 0x0c, 0x00, 0x08, 0x00, 0x04, 0x00,
  0x0e, 0x00, 0x00, 0x00, 0x03, 0x00, 0x00, 0x00, 0x03, 0x00, 0x00, 0x00,
  0x03, 0x00, 0x00, 0x00, 0x03, 0x00, 0x00, 0x00, 0x00, 0x00, 0x00, 0x01,
  0x01, 0x00, 0x00, 0x00, 0x0b, 0x00, 0x00, 0x00, 0x01, 0x00, 0x00, 0x00,
  0x0a, 0x00, 0x00, 0x00, 0x46, 0xff, 0xff, 0xff, 0x00, 0x00, 0x00, 0x11,
  0x01, 0x00, 0x00, 0x00, 0x62, 0xd5, 0xff, 0xff, 0x10, 0x00, 0x00, 0x00,
  0x0c, 0x00, 0x00, 0x00, 0x1c, 0x00, 0x00, 0x00, 0x40, 0x00, 0x00, 0x00,
  0x04, 0x00, 0x00, 0x00, 0x01, 0x00, 0x00, 0x00, 0x15, 0x00, 0x00, 0x00,
  0x01, 0x00, 0x00, 0x00, 0x08, 0x00, 0x00, 0x00, 0x20, 0x00, 0x00, 0x00,
  0x73, 0x65, 0x71, 0x75, 0x65, 0x6e, 0x74, 0x69, 0x61, 0x6c, 0x2f, 0x6d,
  0x61, 0x78, 0x5f, 0x70, 0x6f, 0x6f, 0x6c, 0x69, 0x6e, 0x67, 0x32, 0x64,
  0x2f, 0x4d, 0x61, 0x78, 0x50, 0x6f, 0x6f, 0x6c, 0x00, 0x00, 0x00, 0x00,
  0xbc, 0xd5, 0xff, 0xff, 0x00, 0x00, 0x0e, 0x00, 0x14, 0x00, 0x00, 0x00,
  0x08, 0x00, 0x0c, 0x00, 0x07, 0x00, 0x10, 0x00, 0x0e, 0x00, 0x00, 0x00,
  0x00, 0x00, 0x00, 0x01, 0x30, 0x00, 0x00, 0x00, 0x24, 0x00, 0x00, 0x00,
  0x10, 0x00, 0x00, 0x00, 0x0c, 0x00, 0x10, 0x00, 0x00, 0x00, 0x04, 0x00,
  0x08, 0x00, 0x0f, 0x00, 0x0c, 0x00, 0x00, 0x00, 0x01, 0x00, 0x00, 0x00,
  0x01, 0x00, 0x00, 0x00, 0x00, 0x00, 0x00, 0x01, 0x01, 0x00, 0x00, 0x00,
  0x0a, 0x00, 0x00, 0x00, 0x03, 0x00, 0x00, 0x00, 0x00, 0x00, 0x00, 0x00,
  0x06, 0x00, 0x00, 0x00, 0x08, 0x00, 0x00, 0x00, 0x00, 0x00, 0x0a, 0x00,
  0x0c, 0x00, 0x07, 0x00, 0x00, 0x00, 0x08, 0x00, 0x0a, 0x00, 0x00, 0x00,
  0x00, 0x00, 0x00, 0x03, 0x01, 0x00, 0x00, 0x00, 0x26, 0xd6, 0xff, 0xff,
  0x10, 0x00, 0x00, 0x00, 0x0b, 0x00, 0x00, 0x00, 0x1c, 0x00, 0x00, 0x00,
  0x28, 0x00, 0x00, 0x00, 0x04, 0x00, 0x00, 0x00, 0x01, 0x00, 0x00, 0x00,
  0x40, 0x00, 0x00, 0x00, 0x03, 0x00, 0x00, 0x00, 0x08, 0x00, 0x00, 0x00,
  0x0b, 0x00, 0x00, 0x00, 0x74, 0x66, 0x6c, 0x2e, 0x63, 0x6f, 0x6e, 0x76,
  0x5f, 0x32, 0x64, 0x00, 0x10, 0xd6, 0xff, 0xff, 0x06, 0xd7, 0xff, 0xff,
  0x04, 0x00, 0x00, 0x00, 0x40, 0x00, 0x00, 0x00, 0x8f, 0x9d, 0x20, 0x3d,
  0xd0, 0x03, 0x57, 0xbf, 0x5b, 0xf1, 0x31, 0x40, 0x8d, 0x98, 0x7d, 0xbf,
  0x12, 0x19, 0x38, 0x3f, 0xff, 0xeb, 0x46, 0xbf, 0xa2, 0xd5, 0x68, 0x3e,
  0xce, 0x32, 0x05, 0x3e, 0x00, 0xc6, 0x83, 0xbf, 0xff, 0x96, 0x9b, 0xbe,
  0x2b, 0x7f, 0x95, 0xbf, 0x7c, 0xb1, 0xac, 0xbd, 0x31, 0xcb, 0x26, 0xbf,
  0x1f, 0xc3, 0x34, 0xbd, 0xca, 0xfb, 0x89, 0xbe, 0x42, 0xe0, 0xbb, 0xbe,
  0xae, 0xd6, 0xff, 0xff, 0x10, 0x00, 0x00, 0x00, 0x0a, 0x00, 0x00, 0x00,
  0x10, 0x00, 0x00, 0x00, 0x20, 0x00, 0x00, 0x00, 0x01, 0x00, 0x00, 0x00,
  0x10, 0x00, 0x00, 0x00, 0x0d, 0x00, 0x00, 0x00, 0x73, 0x74, 0x64, 0x2e,
  0x63, 0x6f, 0x6e, 0x73, 0x74, 0x61, 0x6e, 0x74, 0x31, 0x00, 0x00, 0x00,
  0x90, 0xd6, 0xff, 0xff, 0x86, 0xd7, 0xff, 0xff, 0x04, 0x00, 0x00, 0x00,
  0x20, 0x00, 0x00, 0x00, 0x4f, 0x8c, 0x1b, 0xc0, 0x4d, 0x36, 0x6b, 0xbe,
  0x23, 0xca, 0x0b, 0xbe, 0xbb, 0xd7, 0x35, 0xc0, 0xc8, 0xeb, 0x5d, 0xbf,
  0x90, 0xc2, 0xc5, 0xbf, 0x22, 0x51, 0x74, 0xbf, 0xbe, 0x64, 0xe5, 0xbf,
  0x0e, 0xd7, 0xff, 0xff, 0x10, 0x00, 0x00, 0x00, 0x09, 0x00, 0x00, 0x00,
  0x10, 0x00, 0x00, 0x00, 0x20, 0x00, 0x00, 0x00, 0x01, 0x00, 0x00, 0x00,
  0x08, 0x00, 0x00, 0x00, 0x0c, 0x00, 0x00, 0x00, 0x73, 0x74, 0x64, 0x2e,
  0x63, 0x6f, 0x6e, 0x73, 0x74, 0x61, 0x6e, 0x74, 0x00, 0x00, 0x00, 0x00,
  0xf0, 0xd6, 0xff, 0xff, 0xe6, 0xd7, 0xff, 0xff, 0x04, 0x00, 0x00, 0x00,
  0x00, 0x08, 0x00, 0x00, 0xc6, 0xb8, 0x3a, 0xbf, 0x7d, 0xc6, 0xe0, 0x3c,
  0xc9, 0x34, 0x81, 0xbd, 0xd9, 0xe3, 0xe0, 0xbe, 0x32, 0xe8, 0x5c, 0x3e,
  0xcd, 0xae, 0xa2, 0xbe, 0x4a, 0xb5, 0x73, 0xbd, 0xfd, 0xb9, 0x02, 0xbd,
  0xb8, 0x00, 0x45, 0xbc, 0x64, 0xc5, 0xe8, 0xbd, 0xd7, 0xbb, 0x0f, 0xbd,
  0xfa, 0xee, 0xce, 0xbe, 0x36, 0x06, 0xcf, 0xbb, 0xa5, 0x66, 0x04, 0xbf,
  0x8e, 0x41, 0xac, 0xbe, 0x11, 0xf1, 0xac, 0x3e, 0x91, 0xd8, 0x4a, 0x3f,
  0x4b, 0x70, 0xcd, 0xbc, 0xe3, 0x61, 0xee, 0x3c, 0xbb, 0x3a, 0x7d, 0xbe,
  0x7f, 0x5d, 0x81, 0xbe, 0x1a, 0x8f, 0x92, 0xbb, 0x13, 0x7a, 0x22, 0xbe,
  0xd6, 0x93, 0x4a, 0x3d, 0x82, 0x6a, 0xdc, 0x3e, 0x15, 0xd4, 0x08, 0x3e,
  0xde, 0x22, 0x37, 0x3d, 0x65, 0x94, 0x95, 0x3e, 0x5b, 0xed, 0x99, 0xbe,
  0xcb, 0x20, 0x83, 0x3e, 0x49, 0xe0, 0xb6, 0xbd, 0x91, 0x2e, 0x43, 0xbe,
  0xfd, 0xab, 0x88, 0x3e, 0xcc, 0x33, 0x57, 0xbe, 0x52, 0x65, 0xa6, 0xbe,
  0xdb, 0x95, 0xeb, 0xbd, 0x91, 0xd7, 0x64, 0x3e, 0xe2, 0xaf, 0x28, 0xbe,
  0xe3, 0x50, 0xde, 0xbd, 0x4a, 0x71, 0xc6, 0x3e, 0x6c, 0xf1, 0x09, 0x3f,
  0x8a, 0x6d, 0x96, 0xbe, 0x97, 0xa1, 0x95, 0xbe, 0x12, 0x78, 0x40, 0xbe,
  0x46, 0xa8, 0xbf, 0x3e, 0x48, 0x2d, 0xd3, 0x3d, 0x97, 0x22, 0xf2, 0x3e,
  0x5d, 0x1e, 0x09, 0x3d, 0x01, 0x85, 0x7c, 0x3d, 0xc3, 0xec, 0xe3, 0xbe,
  0x45, 0xf5, 0xc7, 0xbe, 0xc3, 0x9f, 0xa8, 0xbc, 0xb5, 0x9a, 0xc6, 0x3d,
  0x76, 0x49, 0x18, 0xbd, 0xd3, 0x00, 0x5e, 0x3e, 0x4d, 0xa3, 0xec, 0x3c,
  0x86, 0x16, 0xae, 0x3e, 0xb3, 0xf2, 0xba, 0xbe, 0xf6, 0x8b, 0xc9, 0xbe,
  0xb0, 0xc2, 0x3e, 0x3c, 0x30, 0xef, 0xce, 0x3e, 0xe1, 0x38, 0x25, 0xbc,
  0xbf, 0x42, 0x40, 0xbd, 0x0b, 0x99, 0x42, 0xbe, 0x66, 0x14, 0x3f, 0xbe,
  0x7f, 0xd3, 0x89, 0xbe, 0x5a, 0xba, 0x63, 0xbe, 0x39, 0xa5, 0x35, 0x3d,
  0x87, 0xb1, 0xd1, 0x39, 0x8c, 0xbb, 0x91, 0xbe, 0xbb, 0x83, 0x9d, 0x3d,
  0x36, 0x84, 0x75, 0xbe, 0x9b, 0xc3, 0x47, 0xbc, 0x99, 0x1c, 0x71, 0xbe,
  0xf5, 0x8d, 0xd9, 0xbd, 0x2f, 0xc8, 0x33, 0xbe, 0x66, 0xaa, 0xb5, 0x3d,
  0x10, 0xdd, 0x61, 0xbd, 0xb4, 0xb3, 0x76, 0xbe, 0xf1, 0x5b, 0x91, 0xbc,
  0xaf, 0x8d, 0x85, 0xbd, 0x94, 0xa9, 0x8a, 0xbe, 0xc1, 0x11, 0xcd, 0x3d,
  0xeb, 0xf2, 0x9a, 0xbe, 0xcd, 0x25, 0x46, 0xbe, 0x24, 0x5c, 0x39, 0xbe,
  0xc3, 0x41, 0x8d, 0x3d, 0x00, 0xd8, 0x4d, 0xbe, 0xe8, 0xd5, 0x1f, 0xbd,
  0x20, 0xfe, 0x83, 0xbe, 0xb6, 0x5c, 0x28, 0xbe, 0x3a, 0x11, 0xad, 0xbd,
  0x68, 0xff, 0x5e, 0xbe, 0x1e, 0xcf, 0x5a, 0xbe, 0x88, 0xe9, 0x3c, 0x3e,
  0xfa, 0xa9, 0x4a, 0x3e, 0x42, 0xb8, 0x88, 0x3e, 0x70, 0x00, 0x5e, 0xbe,
  0xcf, 0x05, 0x91, 0xbe, 0x60, 0x59, 0x13, 0x3d, 0x72, 0x5f, 0x00, 0x3e,
  0x01, 0xdd, 0x3b, 0x3e, 0x4a, 0x0d, 0x2e, 0x3e, 0x32, 0xe8, 0xbf, 0x3e,
  0x9b, 0xa5, 0x24, 0x3e, 0xb9, 0x1e, 0x2a, 0xbe, 0xdd, 0x5a, 0x46, 0xbe,
  0x94, 0x24, 0x3c, 0xbe, 0x5d, 0x85, 0x51, 0x3e, 0x30, 0x2f, 0x51, 0x3e,
  0x63, 0x5b, 0x89, 0x3d, 0x9f, 0x75, 0x55, 0x3e, 0xb9, 0x7d, 0xd4, 0x3d,
  0x46, 0x5c, 0xd6, 0xbe, 0x58, 0x76, 0x83, 0xbe, 0x08, 0x92, 0x9f, 0x3c,
  0x05, 0x13, 0x01, 0x3e, 0x87, 0xd2, 0xc5, 0x3d, 0x03, 0x8c, 0x89, 0xbe,
  0xe9, 0x59, 0x0c, 0x3e, 0x59, 0x6b, 0x39, 0x3e, 0x4c, 0x06, 0xbc, 0xbe,
  0x8f, 0x59, 0xae, 0xbe, 0x05, 0xf1, 0x3f, 0xbc, 0x0a, 0x9c, 0x99, 0xbe,
  0x23, 0x56, 0x14, 0xbe, 0x14, 0x51, 0xa5, 0xbd, 0xd6, 0xbe, 0x1b, 0x3e,
  0x0a, 0xad, 0x1f, 0xbd, 0x56, 0xd8, 0x33, 0xbe, 0xca, 0x5f, 0x88, 0xbd,
  0x38, 0x09, 0x40, 0xbe, 0xb1, 0x70, 0x7c, 0x3e, 0x4f, 0xcc, 0x12, 0xbe,
  0x91, 0x56, 0x32, 0x3d, 0xa8, 0x96, 0x2e, 0xbe, 0x48, 0x29, 0x2d, 0xbe,
  0xe4, 0xe0, 0xc4, 0xbc, 0x6c, 0xd7, 0xd2, 0xbd, 0x86, 0x4a, 0xff, 0xbd,
  0xa0, 0xbe, 0x9e, 0xbc, 0xbc, 0xa1, 0x6e, 0x3d, 0x55, 0xc5, 0x2b, 0x3e,
  0xf2, 0x35, 0x3a, 0xbe, 0x58, 0x51, 0xed, 0xbc, 0x01, 0x81, 0x4b, 0xbe,
  0xfe, 0x61, 0x26, 0xbe, 0x81, 0xdb, 0x90, 0xbe, 0xd8, 0x2b, 0xd5, 0xbd,
  0x32, 0x34, 0x66, 0xbe, 0xca, 0x22, 0xca, 0x3d, 0x6b, 0x13, 0xfa, 0xbd,
  0x1d, 0x96, 0x8c, 0xbe, 0x1a, 0x16, 0x08, 0xbe, 0x3a, 0x00, 0x60, 0xbe,
  0x3d, 0xc8, 0x83, 0xbe, 0x75, 0xd4, 0xc9, 0xbd, 0x8d, 0x10, 0x1d, 0xbe,
  0x67, 0xcf, 0xca, 0xbd, 0xa9, 0x03, 0x1a, 0xbe, 0x86, 0xa1, 0x03, 0x3f,
  0xd9, 0x08, 0x40, 0x3e, 0x86, 0x38, 0x00, 0xbe, 0x48, 0x94, 0x82, 0x3e,
  0xda, 0x01, 0x08, 0xbf, 0xfc, 0x19, 0xfe, 0x3e, 0xd6, 0x69, 0xb6, 0xbd,
  0xbd, 0xc7, 0xe6, 0xbe, 0x57, 0x6f, 0x9b, 0xbe, 0x69, 0xd7, 0x09, 0xbe,
  0x8f, 0x48, 0x23, 0xbe, 0xaa, 0xc7, 0xe5, 0xbd, 0x76, 0x02, 0x10, 0xbf,
  0x65, 0x98, 0x18, 0xbd, 0x37, 0xb1, 0xd9, 0xbd, 0xbc, 0x18, 0xbd, 0xbd,
  0x15, 0x10, 0x48, 0xbd, 0xaf, 0xcc, 0xae, 0xbd, 0x76, 0xab, 0x4b, 0xbd,
  0xa2, 0xf0, 0x69, 0x3a, 0x84, 0xf9, 0x00, 0xbf, 0x46, 0x0a, 0x16, 0xbd,
  0xec, 0xc6, 0x80, 0xbd, 0x24, 0x03, 0xe6, 0x3d, 0x5e, 0x45, 0xca, 0xbd,
  0xc1, 0xf2, 0x12, 0xbe, 0x8e, 0xdc, 0x52, 0xbe, 0xc5, 0x22, 0xd8, 0xbd,
  0x54, 0x27, 0xd4, 0xbe, 0x1f, 0x14, 0x28, 0xbd, 0xd0, 0x1b, 0x39, 0xbc,
  0x62, 0x36, 0x35, 0xbe, 0x93, 0x5c, 0xae, 0xbe, 0x76, 0x71, 0x27, 0x3e,
  0x56, 0xad, 0x54, 0x3d, 0xea, 0xe9, 0x45, 0x3e, 0xfa, 0xb1, 0x05, 0x3e,
  0x37, 0x6e, 0x2d, 0x3c, 0x01, 0x92, 0xec, 0x3d, 0x22, 0x4c, 0xe6, 0xbd,
  0x42, 0x47, 0x1a, 0x3f, 0xc7, 0x73, 0x01, 0xbd, 0xf2, 0xed, 0xbd, 0xbd,
  0x65, 0x8d, 0x33, 0xbd, 0x90, 0xca, 0x1c, 0x3e, 0x3b, 0x39, 0xc7, 0xbd,
  0xb7, 0x97, 0x95, 0xbd, 0x58, 0x36, 0x91, 0xbd, 0x59, 0x32, 0xf8, 0xbe,
  0xb9, 0xa2, 0x25, 0xbe, 0x79, 0xae, 0xe2, 0xbd, 0x0a, 0xb3, 0x82, 0xbe,
  0xb4, 0x22, 0x1c, 0xbe, 0x71, 0xab, 0xb9, 0xbe, 0xc6, 0x99, 0xad, 0x3d,
  0xf9, 0xec, 0xb4, 0xbe, 0xcf, 0xde, 0x8e, 0xbe, 0xe1, 0x37, 0xbd, 0xbd,
  0xf7, 0x3d, 0x6f, 0xbd, 0x2d, 0xe6, 0xce, 0xbd, 0x57, 0xc4, 0x9e, 0xbe,
  0xcf, 0xba, 0xb4, 0xbe, 0x00, 0xf3, 0x3d, 0xbe, 0x7c, 0x67, 0x73, 0xbe,
  0x62, 0x50, 0x4a, 0x3d, 0x72, 0x41, 0xcd, 0xbc, 0xda, 0xb9, 0x97, 0xbd,
  0x1e, 0x46, 0xed, 0xbe, 0x8c, 0x35, 0xb0, 0x3d, 0xc2, 0xd6, 0xad, 0xbe,
  0x4c, 0x28, 0x70, 0xbd, 0xa8, 0x16, 0xe8, 0xbc, 0x69, 0x96, 0x6b, 0x3d,
  0x5a, 0x59, 0xb8, 0xbd, 0x77, 0xfd, 0x50, 0xbd, 0x7a, 0xf8, 0x75, 0xbe,
  0x49, 0x87, 0xcf, 0x3d, 0x1d, 0x89, 0xeb, 0xbe, 0x7d, 0x58, 0x7d, 0xbe,
  0x80, 0xe5, 0x22, 0x3f, 0x5c, 0x8f, 0x21, 0x3f, 0xcc, 0xc2, 0x34, 0xbb,
  0x09, 0xbf, 0x88, 0x3e, 0xa2, 0xf9, 0x13, 0x3d, 0xf8, 0x6b, 0x08, 0xbc,
  0x1c, 0xa9, 0xd5, 0xbd, 0xc1, 0x1d, 0xe3, 0xbd, 0xb9, 0x67, 0x0b, 0xbe,
  0x30, 0x4b, 0xb2, 0x3e, 0x11, 0xc2, 0xaf, 0xbd, 0xb1, 0x2c, 0xa3, 0xbd,
  0x09, 0xeb, 0x6d, 0x3e, 0xfa, 0x38, 0x1f, 0xbf, 0xa3, 0xc0, 0xed, 0x3d,
  0xd7, 0xb0, 0x81, 0xbe, 0xb1, 0x7c, 0xf3, 0xbe, 0xe1, 0x2f, 0x8f, 0x3e,
  0x84, 0xc6, 0xbf, 0xbe, 0x5a, 0x58, 0x72, 0xbe, 0x13, 0xd6, 0x31, 0xbe,
  0x16, 0x74, 0xc4, 0x3e, 0x6c, 0x9b, 0x9f, 0xbd, 0x99, 0xc7, 0xcf, 0xbd,
  0x3b, 0xab, 0x0c, 0xbe, 0xad, 0xed, 0xdb, 0x3d, 0x01, 0x83, 0xb0, 0xbe,
  0x4f, 0xe3, 0x85, 0xbd, 0xf3, 0x95, 0x1f, 0x3b, 0x37, 0xad, 0xcc, 0x3e,
  0x1a, 0xe8, 0x36, 0x3d, 0xca, 0x8d, 0x13, 0x3f, 0xa6, 0xce, 0xf8, 0x3b,
  0x87, 0x84, 0x4d, 0x3e, 0x2e, 0x4f, 0xb8, 0xbe, 0xd5, 0xae, 0x62, 0xbe,
  0xad, 0x86, 0x94, 0x3d, 0x3f, 0x92, 0xdc, 0x3e, 0x09, 0x5f, 0x27, 0x3e,
  0xad, 0xa5, 0xec, 0x3d, 0x9b, 0xd0, 0x79, 0x3c, 0x54, 0x21, 0x76, 0x3e,
  0x44, 0xbf, 0x94, 0xbe, 0xc1, 0xc8, 0x93, 0xbe, 0x2e, 0xde, 0x8e, 0x3d,
  0x47, 0x66, 0xe1, 0x3e, 0xab, 0xf9, 0x10, 0x3e, 0x83, 0x37, 0xa5, 0x3d,
  0x8b, 0xf9, 0x39, 0xbe, 0x38, 0x7e, 0x15, 0x3d, 0x96, 0x96, 0x05, 0x3e,
  0x04, 0x64, 0xc6, 0xbc, 0xc5, 0x27, 0xf9, 0xbc, 0x56, 0x02, 0x62, 0x3d,
  0x4e, 0xca, 0x86, 0xbc, 0xa2, 0x92, 0x38, 0x3d, 0xef, 0xe3, 0xa1, 0xbd,
  0x57, 0x9e, 0x9c, 0x3e, 0x8e, 0x6f, 0xbe, 0xb9, 0x78, 0x77, 0x54, 0x3c,
  0x0f, 0x9d, 0xbd, 0x3e, 0xb8, 0xb8, 0x88, 0x3d, 0x60, 0x92, 0x02, 0xbb,
  0x16, 0xf5, 0x7c, 0x3d, 0xc4, 0xcd, 0x9b, 0xbd, 0xdc, 0x6c, 0x5f, 0xbc,
  0x08, 0xed, 0x95, 0x3d, 0x79, 0x02, 0xd6, 0xbc, 0xe8, 0xec, 0xad, 0x3d,
  0xe7, 0x84, 0xe7, 0xbd, 0x69, 0x60, 0xb2, 0x3d, 0xd2, 0x43, 0xae, 0x3d,
  0xc8, 0x80, 0x21, 0x3e, 0xae, 0x17, 0x63, 0xbb, 0x25, 0xcd, 0xb5, 0xbd,
  0xc0, 0xf5, 0x90, 0xbd, 0x75, 0x27, 0xe9, 0xbc, 0x43, 0x45, 0x62, 0xbd,
  0x72, 0xcf, 0x47, 0x3d, 0xff, 0x1e, 0x0f, 0x3c, 0xff, 0x9d, 0x13, 0xbc,
  0x68, 0x5b, 0x11, 0xbd, 0x17, 0x0b, 0x4b, 0xbc, 0x44, 0x0c, 0xb3, 0xbc,
  0x8a, 0xd9, 0xa3, 0xbd, 0x72, 0x65, 0x56, 0xbe, 0x91, 0xba, 0x22, 0xbe,
  0x88, 0x19, 0x93, 0xbc, 0x6f, 0xc8, 0x41, 0xbe, 0xf6, 0xb2, 0xd9, 0x3b,
  0x01, 0x9e, 0x0d, 0xbd, 0xbb, 0x3e, 0x0f, 0xbd, 0xe3, 0x91, 0x1a, 0x3e,
  0x5a, 0x70, 0x7c, 0xbd, 0x84, 0x38, 0x7f, 0xbc, 0x02, 0xd0, 0x52, 0x39,
  0xd3, 0x5f, 0x0f, 0xbe, 0x5e, 0xa0, 0x8f, 0x3f, 0x17, 0xaf, 0x2b, 0x3d,
  0x4f, 0xf9, 0xf6, 0x3c, 0x36, 0x22, 0xac, 0x3c, 0x99, 0x51, 0xd5, 0x3d,
  0x48, 0x29, 0xa9, 0x3c, 0xae, 0x63, 0x58, 0x3d, 0x01, 0xe3, 0x90, 0xbc,
  0x67, 0xc5, 0x22, 0xbf, 0xea, 0x65, 0x22, 0x3a, 0xd8, 0x49, 0x02, 0x3e,
  0xa9, 0xd7, 0x0c, 0xb9, 0xad, 0x7a, 0x56, 0x3e, 0x50, 0x1f, 0x01, 0x3d,
  0x76, 0xd2, 0xb3, 0xbc, 0xd9, 0xdd, 0x67, 0xbd, 0x48, 0x78, 0xb5, 0xbe,
  0x57, 0x1e, 0x81, 0xbd, 0x06, 0x31, 0x9e, 0xbd, 0x9f, 0xb6, 0x07, 0x3d,
  0xa5, 0x3d, 0xfa, 0x3b, 0x69, 0x9b, 0xdd, 0x3d, 0xc7, 0xf3, 0x7c, 0xbe,
  0xfe, 0x4b, 0xa1, 0xbd, 0x65, 0x60, 0xec, 0xbe, 0x4a, 0x38, 0x92, 0x3d,
  0x93, 0x4e, 0x7e, 0x3d, 0xaa, 0x14, 0xd1, 0x3c, 0x66, 0xab, 0xb1, 0xbe,
  0xaf, 0x39, 0x96, 0xbe, 0x85, 0x3a, 0xb0, 0xbe, 0xc6, 0x87, 0xee, 0xbd,
  0x46, 0xfc, 0xcd, 0xbd, 0xde, 0xc4, 0x94, 0xbe, 0x21, 0xd5, 0x35, 0xbe,
  0x55, 0xa0, 0xbc, 0xbd, 0xca, 0x8a, 0x93, 0xbe, 0xc9, 0x4b, 0x37, 0x3d,
  0x7b, 0x44, 0xd3, 0x3c, 0x03, 0x65, 0x84, 0xbd, 0x2c, 0x0b, 0x56, 0xbe,
  0x8a, 0x7f, 0x1d, 0x3e, 0x09, 0x03, 0x94, 0xbd, 0x59, 0x4b, 0x88, 0x3d,
  0xc3, 0x06, 0x34, 0x3d, 0x14, 0x91, 0xaa, 0xbd, 0x20, 0x07, 0xbe, 0xbe,
  0x22, 0x20, 0x64, 0x3e, 0xd0, 0x04, 0x6d, 0x3e, 0xb6, 0x58, 0x9e, 0xbd,
  0x7c, 0xba, 0x2e, 0xbd, 0xe0, 0x58, 0xaf, 0xbe, 0x86, 0x48, 0xd0, 0x3d,
  0x23, 0x0e, 0x02, 0x3d, 0x08, 0x14, 0x15, 0xbe, 0x74, 0x6f, 0x16, 0x3e,
  0x5c, 0x6f, 0x3b, 0x3e, 0x26, 0x6b, 0x18, 0xbe, 0x6d, 0x1d, 0xa6, 0xbd,
  0x92, 0x46, 0xd1, 0xbe, 0x54, 0x6e, 0x56, 0xbd, 0xc4, 0x6f, 0xb1, 0xbe,
  0x88, 0x6d, 0x7b, 0xbe, 0x59, 0xda, 0x09, 0x3f, 0x8d, 0x46, 0xe3, 0x3e,
  0xa4, 0xf1, 0x85, 0xbc, 0x45, 0x0e, 0xb0, 0x3d, 0xc7, 0x88, 0xcc, 0x3e,
  0xe8, 0x6f, 0xa6, 0x3d, 0x98, 0xcb, 0xa4, 0xbc, 0xc9, 0x1e, 0xca, 0xbd,
  0xc7, 0xa4, 0x29, 0xbd, 0x96, 0x7d, 0x4e, 0xbe, 0xf1, 0x80, 0x23, 0x3d,
  0x43, 0x29, 0x72, 0x3d, 0x90, 0x9d, 0x03, 0xbe, 0x17, 0x3d, 0xa8, 0xbe,
  0x20, 0xcb, 0x57, 0x3e, 0xaa, 0xaf, 0x40, 0xbb, 0xd0, 0xc8, 0x40, 0xbe,
  0x66, 0x85, 0x0f, 0xbc, 0x65, 0x29, 0xbe, 0x3d, 0x0b, 0xfc, 0xa2, 0x3e,
  0x3e, 0x2b, 0x0d, 0xbd, 0x73, 0x46, 0xf3, 0xbc, 0x1a, 0xd1, 0x8a, 0xbd,
  0x4b, 0x4c, 0xcb, 0x3e, 0x40, 0x12, 0x56, 0xbf, 0x48, 0x13, 0xba, 0xbd,
  0xcb, 0xf0, 0xa0, 0x3d, 0x17, 0xf0, 0xa8, 0x3b, 0x23, 0xe1, 0xa9, 0x3d,
  0x6f, 0xbd, 0x80, 0xbe, 0x8e, 0xb2, 0x26, 0xbe, 0xb8, 0xbb, 0x0a, 0xbf,
  0x0b, 0x99, 0x11, 0xbf, 0xa1, 0xf7, 0x5c, 0xbd, 0xf5, 0x0a, 0xaa, 0x3c,
  0x3a, 0x6f, 0x47, 0x3b, 0x6b, 0xf2, 0x8b, 0xbd, 0xc7, 0x6d, 0x49, 0xbe,
  0x09, 0x66, 0xb1, 0xbd, 0xa4, 0x18, 0x08, 0xbf, 0x13, 0x79, 0xb9, 0xbe,
  0xdb, 0xbf, 0xe3, 0x3d, 0x3f, 0xf1, 0x97, 0xba, 0xb3, 0xa6, 0xcc, 0xbc,
  0xe8, 0x08, 0xdc, 0xbd, 0xa5, 0x25, 0xac, 0x3d, 0xa3, 0x33, 0x67, 0xbe,
  0xce, 0xde, 0xe7, 0xbe, 0x38, 0x4c, 0xc5, 0xbe, 0x77, 0x93, 0x53, 0xbe,
  0xe0, 0xd7, 0x34, 0x3e, 0x1c, 0x68, 0x48, 0x3d, 0x7f, 0xef, 0xe8, 0x3e,
  0xd2, 0xa9, 0xa5, 0x3d, 0xb4, 0x76, 0xdb, 0x3e, 0x02, 0xe4, 0xb6, 0xbc,
  0xa8, 0xf6, 0x5e, 0x3e, 0x01, 0x28, 0x13, 0x3f, 0xe1, 0x9f, 0xbd, 0xbd,
  0x93, 0x63, 0x70, 0xbd, 0x02, 0x96, 0x02, 0xbe, 0xe4, 0xea, 0x99, 0x3e,
  0xc6, 0xed, 0x2b, 0xbe, 0xbf, 0xca, 0x60, 0xbe, 0x08, 0x94, 0xf4, 0xbd,
  0x31, 0xf6, 0x30, 0xbe, 0x26, 0x69, 0x1f, 0xbe, 0x2a, 0x99, 0xa6, 0xbd,
  0x8f, 0xcb, 0x06, 0xbe, 0x3b, 0x7d, 0xaa, 0xbe, 0xff, 0x5a, 0x0d, 0xbe,
  0xca, 0x27, 0x52, 0xbd, 0x61, 0xb7, 0x7b, 0xbd, 0xf9, 0xb0, 0x99, 0x3c,
  0x2e, 0xbd, 0x37, 0xbe, 0xab, 0xcc, 0xfe, 0xbd, 0x2a, 0x13, 0x64, 0xbd,
  0xb5, 0xc6, 0xd3, 0xbd, 0xfe, 0xe3, 0x3f, 0xbe, 0xba, 0x8a, 0xa6, 0xbd,
  0x5c, 0x98, 0x25, 0xbe, 0x43, 0x69, 0x66, 0x3c, 0x35, 0x8e, 0x3d, 0xbd,
  0xbc, 0x5f, 0x19, 0xbd, 0x10, 0xf5, 0xc4, 0x36, 0xfe, 0x23, 0x8b, 0xbe,
  0x97, 0x2d, 0x82, 0xbe, 0x9c, 0x63, 0x33, 0xbd, 0xa7, 0xf4, 0xb4, 0x3b,
  0x88, 0x8a, 0xde, 0xbc, 0x91, 0x54, 0xf9, 0xba, 0xc9, 0x69, 0x0f, 0x3c,
  0x49, 0xfd, 0x3e, 0xbe, 0x53, 0xcb, 0x5c, 0xbe, 0xb6, 0xe7, 0x8d, 0xbe,
  0x38, 0x11, 0x22, 0xbe, 0xe0, 0x53, 0x31, 0x3e, 0xb1, 0x1e, 0xa0, 0x3f,
  0x4d, 0xb0, 0xb7, 0xbc, 0x73, 0x03, 0xbd, 0xbd, 0x0b, 0xa1, 0xf6, 0x3d,
  0xf8, 0x83, 0x21, 0xbd, 0x42, 0x13, 0xa7, 0x3d, 0x2a, 0x32, 0xa9, 0x3a,
  0x58, 0x44, 0xa2, 0xbc, 0xaa, 0x4e, 0xb8, 0xbe, 0x23, 0x04, 0x09, 0x3c,
  0x58, 0xa9, 0x16, 0x3e, 0x4e, 0x11, 0xb0, 0x3d, 0xa6, 0x6e, 0xc3, 0x3e,
  0x5d, 0xa5, 0xb0, 0xbd, 0x68, 0x76, 0x90, 0xbd, 0xf6, 0xbb, 0x06, 0x3d,
  0x4e, 0xdf, 0xff, 0xff, 0x10, 0x00, 0x00, 0x00, 0x08, 0x00, 0x00, 0x00,
  0x1c, 0x00, 0x00, 0x00, 0x38, 0x00, 0x00, 0x00, 0x04, 0x00, 0x00, 0x00,
  0x10, 0x00, 0x00, 0x00, 0x04, 0x00, 0x00, 0x00, 0x01, 0x00, 0x00, 0x00,
  0x08, 0x00, 0x00, 0x00, 0x1a, 0x00, 0x00, 0x00, 0x73, 0x65, 0x71, 0x75,
  0x65, 0x6e, 0x74, 0x69, 0x61, 0x6c, 0x2f, 0x63, 0x6f, 0x6e, 0x76, 0x32,
  0x64, 0x5f, 0x31, 0x2f, 0x43, 0x6f, 0x6e, 0x76, 0x32, 0x44, 0x00, 0x00,
  0x48, 0xdf, 0xff, 0xff, 0x3e, 0xe0, 0xff, 0xff, 0x04, 0x00, 0x00, 0x00,
  0x80, 0x01, 0x00, 0x00, 0xf9, 0xdb, 0x6e, 0xbf, 0xb5, 0xb6, 0x28, 0x3e,
  0x9e, 0x88, 0xff, 0xbe, 0x29, 0x82, 0x88, 0x3e, 0x0f, 0xaf, 0x14, 0xbd,
  0xe7, 0x6e, 0x31, 0x3e, 0x23, 0xef, 0x02, 0x3f, 0x16, 0xee, 0x7a, 0xbe,
  0xc1, 0xe9, 0x81, 0x3e, 0xc6, 0xde, 0x6f, 0x3e, 0x3a, 0xf5, 0x90, 0x3d,
  0x48, 0xdd, 0x6d, 0x3d, 0x7d, 0xbb, 0x15, 0x3d, 0x3c, 0x22, 0x0e, 0x3e,
  0x83, 0x12, 0x3d, 0x3a, 0xb3, 0xb5, 0xa7, 0xbc, 0x5b, 0x41, 0x07, 0x3e,
  0x7b, 0x8c, 0x13, 0x3d, 0x2d, 0xdb, 0x4d, 0x3b, 0xf7, 0xf1, 0x12, 0x3c,
  0x3a, 0x38, 0xb3, 0xbc, 0xca, 0xb3, 0x2e, 0xbd, 0xb8, 0xa8, 0x80, 0xbd,
  0x26, 0xfb, 0x32, 0xbd, 0x64, 0x66, 0x84, 0xbd, 0x06, 0x61, 0xcf, 0xbb,
  0xfd, 0x46, 0x28, 0xbe, 0x0b, 0x19, 0x61, 0x3d, 0xc2, 0x6d, 0xdc, 0xbd,
  0x8f, 0x6d, 0x60, 0x3d, 0xa0, 0x0b, 0xf0, 0x3d, 0x82, 0x0d, 0x1c, 0x3d,
  0x96, 0xe4, 0xc3, 0x3d, 0x70, 0x3d, 0x0b, 0x3d, 0xc3, 0x93, 0x2b, 0x3d,
  0xf7, 0xa4, 0x58, 0x3e, 0xca, 0x37, 0xcf, 0x3e, 0x9a, 0x30, 0x9b, 0xbc,
  0x6c, 0x77, 0x24, 0x3e, 0xd4, 0x54, 0x54, 0x3e, 0x4a, 0x43, 0x13, 0x3d,
  0xef, 0x46, 0xbb, 0x3d, 0x9c, 0x28, 0x13, 0x3e, 0x56, 0xf4, 0x36, 0xbd,
  0xa1, 0xcd, 0xb1, 0x3d, 0x0e, 0x1e, 0xa9, 0xbe, 0xbf, 0x69, 0xbd, 0xbc,
  0xc6, 0x1d, 0x62, 0xbe, 0x88, 0x28, 0x59, 0xbe, 0x71, 0x68, 0xb0, 0x3d,
  0xea, 0x84, 0x14, 0xbd, 0x79, 0xf5, 0xc0, 0xbe, 0xfa, 0xb3, 0xe1, 0x3c,
  0xd8, 0x5e, 0xa0, 0xbe, 0xfb, 0xce, 0x67, 0x3e, 0xb9, 0xd2, 0x15, 0xbe,
  0x72, 0xfd, 0xbe, 0x3e, 0x6a, 0x39, 0x9f, 0xbe, 0x15, 0x4f, 0xb0, 0xbd,
  0x93, 0x04, 0x87, 0xbe, 0xb2, 0xbe, 0x49, 0x3f, 0x9a, 0xb0, 0x4f, 0x3d,
  0x03, 0x40, 0x21, 0x3e, 0x5c, 0x8e, 0xbf, 0x3d, 0xea, 0xf4, 0x48, 0x3e,
  0xa0, 0x1a, 0xe3, 0xbd, 0x73, 0xad, 0xc4, 0x3d, 0x2c, 0xa8, 0x50, 0xbd,
  0xcb, 0xdf, 0xae, 0x3c, 0x6f, 0x2f, 0xbf, 0xbe, 0x4a, 0x00, 0x80, 0xbe,
  0xde, 0xba, 0x21, 0xbd, 0x59, 0x53, 0xdf, 0x3e, 0x92, 0x9c, 0xce, 0x3d,
  0x05, 0xc1, 0xd1, 0xbe, 0x3b, 0x1e, 0xcd, 0x3e, 0x4a, 0xa7, 0xb2, 0x3d,
  0xcf, 0x3f, 0x55, 0x3d, 0x12, 0xc9, 0xcd, 0x3e, 0xc6, 0xc9, 0x07, 0x3d,
  0x94, 0xff, 0x4e, 0x3e, 0x7a, 0xb9, 0xe6, 0xbd, 0xd4, 0x77, 0x7c, 0xbe,
  0x6c, 0x2e, 0x9f, 0xbd, 0x18, 0x81, 0x40, 0x3d, 0x48, 0xbe, 0xb0, 0xbe,
  0xa5, 0x95, 0x3c, 0x3e, 0xe6, 0xee, 0x25, 0x3e, 0x93, 0xf7, 0x0e, 0xbf,
  0xc6, 0xa2, 0x65, 0x3e, 0x08, 0x83, 0x30, 0xbe, 0xa5, 0xa5, 0xa3, 0x3e,
  0x76, 0x27, 0x5b, 0xbe, 0x9e, 0xe7, 0xab, 0xbd, 0x54, 0x37, 0x52, 0x3e,
  0xd1, 0x3a, 0x93, 0xbe, 0x26, 0xe1, 0xff, 0xff, 0x10, 0x00, 0x00, 0x00,
  0x07, 0x00, 0x00, 0x00, 0x1c, 0x00, 0x00, 0x00, 0x38, 0x00, 0x00, 0x00,
  0x04, 0x00, 0x00, 0x00, 0x08, 0x00, 0x00, 0x00, 0x04, 0x00, 0x00, 0x00,
  0x03, 0x00, 0x00, 0x00, 0x01, 0x00, 0x00, 0x00, 0x18, 0x00, 0x00, 0x00,
  0x73, 0x65, 0x71, 0x75, 0x65, 0x6e, 0x74, 0x69, 0x61, 0x6c, 0x2f, 0x63,
  0x6f, 0x6e, 0x76, 0x32, 0x64, 0x2f, 0x43, 0x6f, 0x6e, 0x76, 0x32, 0x44,
  0x00, 0x00, 0x00, 0x00, 0x20, 0xe1, 0xff, 0xff, 0x16, 0xe2, 0xff, 0xff,
  0x04, 0x00, 0x00, 0x00, 0x80, 0x00, 0x00, 0x00, 0xa9, 0x4b, 0xac, 0x3e,
  0x35, 0xce, 0xcd, 0x3e, 0x84, 0x8b, 0xc3, 0xbd, 0x90, 0x8b, 0x8c, 0xbe,
  0x64, 0x13, 0xdb, 0x3e, 0xbd, 0x78, 0x05, 0x3c, 0xc1, 0x7b, 0x2e, 0x3e,
  0x4c, 0x74, 0x90, 0xbe, 0xae, 0x40, 0x49, 0xbe, 0xf2, 0xb8, 0x12, 0xbe,
  0x3e, 0x3e, 0x95, 0xbc, 0x95, 0x35, 0x64, 0xbe, 0x99, 0xf2, 0x02, 0x3f,
  0xb6, 0x60, 0x80, 0x3d, 0x8e, 0x73, 0x68, 0xbe, 0x2d, 0x5a, 0x33, 0x3d,
  0xf1, 0x27, 0x7f, 0x3e, 0x3b, 0x4c, 0x7f, 0xbe, 0xfb, 0xe9, 0x57, 0xbd,
  0x21, 0x56, 0xbb, 0xbe, 0x4d, 0x7a, 0xa9, 0x3e, 0x9f, 0x89, 0x76, 0xbd,
  0x42, 0xfa, 0x49, 0x3e, 0x12, 0xb8, 0x51, 0xbe, 0xfa, 0xff, 0xe0, 0xbe,
  0x92, 0xad, 0x9f, 0x3e, 0xd3, 0xc8, 0xd2, 0xbe, 0x26, 0xb1, 0x43, 0xbe,
  0xcd, 0x65, 0xe4, 0x3e, 0x97, 0xf2, 0x5b, 0x3e, 0x52, 0xd8, 0x44, 0xbe,
  0x3e, 0x07, 0x63, 0xbd, 0xfe, 0xe1, 0xff, 0xff, 0x10, 0x00, 0x00, 0x00,
  0x06, 0x00, 0x00, 0x00, 0x14, 0x00, 0x00, 0x00, 0x30, 0x00, 0x00, 0x00,
  0x02, 0x00, 0x00, 0x00, 0x02, 0x00, 0x00, 0x00, 0x10, 0x00, 0x00, 0x00,
  0x19, 0x00, 0x00, 0x00, 0x73, 0x65, 0x71, 0x75, 0x65, 0x6e, 0x74, 0x69,
  0x61, 0x6c, 0x2f, 0x64, 0x65, 0x6e, 0x73, 0x65, 0x5f, 0x31, 0x2f, 0x4d,
  0x61, 0x74, 0x4d, 0x75, 0x6c, 0x00, 0x00, 0x00, 0xf0, 0xe1, 0xff, 0xff,
  0xe6, 0xe2, 0xff, 0xff, 0x04, 0x00, 0x00, 0x00, 0x00, 0x1c, 0x00, 0x00,
  0x98, 0x0d, 0x05, 0x3d, 0xa9, 0x85, 0xba, 0xbd, 0x88, 0x87, 0x04, 0xbe,
  0xd9, 0x73, 0xdf, 0xbd, 0x08, 0x6f, 0x67, 0xbe, 0x5a, 0x5b, 0x97, 0xbb,
  0xf1, 0x79, 0xa6, 0x3d, 0xa6, 0xc9, 0xbe, 0x3d, 0x07, 0x48, 0xdb, 0x3c,
  0xab, 0xd6, 0xdb, 0xbc, 0x2e, 0x1d, 0x5a, 0xbe, 0x20, 0x7e, 0x19, 0x3d,
  0x7a, 0x82, 0x66, 0xbe, 0x51, 0xa1, 0xb7, 0xbe, 0xca, 0x72, 0x2a, 0x3e,
  0x14, 0x95, 0x03, 0xbe, 0xf4, 0x08, 0x15, 0xbe, 0x9f, 0x80, 0xd3, 0x3d,
  0x00, 0x4d, 0x08, 0x3c, 0x00, 0x06, 0x9a, 0x3d, 0x79, 0x22, 0x93, 0x3d,
  0x57, 0x07, 0x6b, 0xbe, 0xff, 0x15, 0x39, 0x3e, 0x53, 0xb1, 0x0c, 0x3d,
  0x92, 0xa5, 0x88, 0xbe, 0x40, 0x70, 0x7d, 0xbc, 0x8c, 0x64, 0x4c, 0xbe,
  0xd7, 0xf7, 0xfe, 0x3d, 0x3a, 0x2e, 0x89, 0xbc, 0x17, 0xcb, 0xcb, 0xbe,
  0x7f, 0x09, 0x31, 0x3d, 0xce, 0x05, 0xda, 0x3c, 0x5c, 0x2e, 0x1f, 0x3e,
  0xf3, 0x9a, 0x1f, 0xbe, 0x08, 0xd6, 0xbb, 0xbd, 0x2e, 0x1d, 0x24, 0xbe,
  0xaf, 0x86, 0x5e, 0x3d, 0xdc, 0xae, 0x02, 0xbe, 0x80, 0x7e, 0x5d, 0xbe,
  0xe5, 0x10, 0x53, 0x3e, 0x36, 0x8f, 0x3e, 0xbe, 0x97, 0x75, 0x07, 0xbe,
  0x91, 0xd7, 0x11, 0xbe, 0x82, 0xd9, 0x82, 0xbd, 0x9b, 0xe8, 0xcb, 0x3b,
  0x32, 0xb2, 0x2e, 0xbe, 0xc8, 0x13, 0x62, 0xbe, 0xcb, 0x7a, 0xf5, 0x3d,
  0xc7, 0x61, 0x51, 0x3d, 0xcb, 0x4b, 0x1d, 0xbe, 0xcf, 0xee, 0xe4, 0xbd,
  0x27, 0x0a, 0xce, 0xbd, 0x06, 0xf9, 0xb0, 0xbd, 0x99, 0x5e, 0x55, 0x3d,
  0x37, 0xa0, 0x36, 0xbe, 0xda, 0xae, 0x18, 0x3e, 0xf0, 0x3b, 0x29, 0xbe,
  0x1d, 0x21, 0x1d, 0xbe, 0x54, 0x39, 0xd9, 0x3d, 0x76, 0x2d, 0x1d, 0x3e,
  0x39, 0xd3, 0xbc, 0xbd, 0xb0, 0xea, 0xd9, 0xbd, 0xa7, 0xd6, 0xdd, 0xbd,
  0xc5, 0x11, 0x09, 0xbe, 0x35, 0xb6, 0x9b, 0x3e, 0x13, 0xdc, 0x66, 0xbe,
  0x44, 0xe1, 0x80, 0xbd, 0x9e, 0x36, 0xe8, 0xbc, 0xd1, 0x7f, 0x27, 0xbe,
  0x54, 0xba, 0xad, 0xbd, 0x72, 0x68, 0x2b, 0xbe, 0xc9, 0x43, 0x97, 0x3e,
  0xa5, 0x16, 0x4d, 0xbe, 0x7c, 0xb5, 0xf5, 0xbd, 0x1a, 0x32, 0x63, 0x3e,
  0x8d, 0x2e, 0x8c, 0xbd, 0xae, 0x0e, 0x8c, 0x3e, 0x33, 0x98, 0x9b, 0xbe,
  0x83, 0x97, 0xc5, 0xbb, 0xc9, 0xad, 0x95, 0x3e, 0x1a, 0xd6, 0xc3, 0x3d,
  0x4c, 0xf8, 0x84, 0x3d, 0xe0, 0x46, 0xba, 0xbd, 0x72, 0xc8, 0x83, 0xbe,
  0xba, 0xa1, 0xac, 0xbd, 0x23, 0xcf, 0x0c, 0x3d, 0xaf, 0xd6, 0x0b, 0xbe,
  0x71, 0xf3, 0x2d, 0x3e, 0xcf, 0xa7, 0xe3, 0x3b, 0xe3, 0xb3, 0xf3, 0xbd,
  0x81, 0xbf, 0x52, 0xbd, 0xe1, 0xb0, 0xe6, 0x3d, 0xf5, 0x2f, 0x09, 0x3d,
  0x01, 0x63, 0x59, 0xbe, 0x5d, 0xa9, 0x8e, 0xbb, 0xb3, 0xe0, 0x66, 0xbb,
  0x4a, 0x3c, 0xa7, 0xbb, 0x4f, 0xc7, 0x0a, 0x3d, 0x5e, 0x5c, 0x24, 0x3e,
  0x11, 0x70, 0x1f, 0x3e, 0x6c, 0x09, 0x4a, 0xbe, 0x77, 0x73, 0x53, 0x3e,
  0xae, 0x85, 0xe2, 0xbd, 0x0c, 0xf0, 0x0d, 0xbe, 0xb6, 0x74, 0x6e, 0xbe,
  0x22, 0xe6, 0x01, 0x3e, 0x77, 0xda, 0x09, 0xbe, 0xba, 0x5e, 0xaa, 0x3d,
  0x03, 0x86, 0x8d, 0xbe, 0xb6, 0xf1, 0xd6, 0x3c, 0x7a, 0xcc, 0x13, 0xbc,
  0xe4, 0x04, 0x35, 0xbe, 0xa5, 0xb5, 0x0a, 0x3e, 0x85, 0x77, 0x46, 0xbd,
  0x48, 0x03, 0x4d, 0x3f, 0x1b, 0x6f, 0x04, 0xbe, 0xa6, 0xb7, 0x1c, 0x3f,
  0x0a, 0x58, 0x50, 0xbd, 0x3a, 0xac, 0x1d, 0xbd, 0x30, 0x66, 0x2e, 0xbe,
  0xf3, 0x61, 0x17, 0xbe, 0xef, 0x8e, 0xf3, 0xbd, 0x7f, 0xc1, 0xb0, 0x3d,
  0x00, 0xd3, 0x32, 0xbe, 0x56, 0x88, 0xbe, 0xbd, 0xd8, 0x0a, 0x1a, 0xbe,
  0xa7, 0x72, 0xc6, 0xbc, 0xc5, 0xcb, 0x27, 0xbe, 0x12, 0xcc, 0x67, 0xbe,
  0x9a, 0x4d, 0x54, 0xbe, 0xba, 0xdc, 0x59, 0x3f, 0xaf, 0x48, 0x13, 0xbe,
  0xb6, 0xd7, 0xd5, 0x3d, 0x24, 0x2d, 0x12, 0x3d, 0x3d, 0x77, 0xb6, 0x3d,
  0xae, 0x55, 0x67, 0xbc, 0x06, 0x7a, 0xb6, 0x3d, 0xf0, 0x06, 0x26, 0xbc,
  0x5c, 0x18, 0xa2, 0xbc, 0xd5, 0x68, 0x87, 0x3e, 0x0d, 0x13, 0x3f, 0xbe,
  0xd2, 0xb7, 0x87, 0x3d, 0xfd, 0x36, 0xd3, 0xbc, 0x36, 0x48, 0xbf, 0x3c,
  0xca, 0x42, 0x99, 0x3d, 0xb8, 0x64, 0x3d, 0xbe, 0xda, 0xef, 0x17, 0x3f,
  0x3f, 0x31, 0x8c, 0xbc, 0x96, 0x3c, 0x5e, 0x3f, 0xcb, 0x80, 0x43, 0xbe,
  0xce, 0x32, 0x63, 0x3e, 0x7d, 0xce, 0x5b, 0x3d, 0x51, 0xa5, 0x38, 0xbe,
  0x2b, 0xdc, 0x1a, 0xbd, 0xff, 0x61, 0x48, 0xbe, 0x86, 0x74, 0x27, 0x3e,
  0xc2, 0x09, 0xef, 0xbd, 0x8b, 0x38, 0x18, 0xbe, 0x65, 0x29, 0x63, 0xbe,
  0xba, 0xf6, 0xa5, 0x3d, 0x46, 0x90, 0x6d, 0xbe, 0x9f, 0x27, 0x46, 0x3d,
  0x60, 0xb1, 0x6b, 0x3f, 0x46, 0x54, 0x8d, 0xbe, 0x5e, 0xf4, 0x84, 0x3f,
  0x1b, 0x72, 0x0a, 0x3e, 0x85, 0x3e, 0xd0, 0x3c, 0x1c, 0x44, 0x39, 0xbe,
  0x51, 0x3f, 0x94, 0xbe, 0x02, 0x9c, 0x34, 0xbe, 0x2c, 0xe2, 0x94, 0xbe,
  0xb4, 0x2e, 0xf3, 0xbd, 0x6d, 0xc0, 0x6e, 0xbe, 0xcb, 0x35, 0x81, 0xbc,
  0xcf, 0xa7, 0x01, 0xbc, 0x66, 0xb0, 0x22, 0xbe, 0x22, 0xcc, 0x64, 0xbe,
  0xa9, 0xfe, 0x25, 0x3d, 0x33, 0xac, 0x4a, 0x3f, 0xd0, 0x73, 0x4b, 0xbe,
  0x9f, 0xf8, 0x62, 0x3f, 0x06, 0xa8, 0xa6, 0xbd, 0xba, 0x37, 0xf8, 0xbd,
  0x5f, 0x92, 0x16, 0x3e, 0xf8, 0x82, 0x88, 0xbd, 0x06, 0x50, 0x73, 0xbe,
  0x97, 0x66, 0x86, 0xbe, 0x3e, 0x9d, 0xd8, 0x3d, 0x50, 0x0f, 0x07, 0xbe,
  0x5a, 0x37, 0xde, 0x3c, 0xe6, 0x38, 0xc4, 0x3d, 0xf7, 0x33, 0x8e, 0xbb,
  0xf2, 0x47, 0x16, 0x3e, 0xff, 0xca, 0x22, 0xbe, 0xbe, 0x79, 0x40, 0x3f,
  0x04, 0x01, 0xa8, 0x3d, 0xaa, 0xb2, 0x3a, 0x3f, 0x72, 0x6b, 0xd4, 0xbd,
  0x67, 0x72, 0x20, 0x3e, 0x53, 0xc5, 0x03, 0xbc, 0x62, 0x87, 0x97, 0xbd,
  0x08, 0x83, 0x80, 0xbe, 0x27, 0x55, 0x24, 0xbe, 0x6f, 0xe0, 0x7b, 0xbd,
  0x35, 0x49, 0x11, 0x3d, 0x1d, 0x80, 0x44, 0xbe, 0x33, 0xbd, 0xb5, 0x3d,
  0x23, 0x3f, 0xaf, 0x3d, 0x3a, 0x6a, 0x5e, 0xbe, 0x70, 0x93, 0x8a, 0xbd,
  0xae, 0xa1, 0xfd, 0x3e, 0xfe, 0xf5, 0x96, 0x3d, 0x78, 0xd9, 0xcd, 0xbd,
  0xb8, 0x2c, 0xdd, 0xbd, 0x97, 0xe8, 0x6f, 0x3d, 0xbc, 0x8a, 0x8a, 0xbe,
  0x70, 0x86, 0x02, 0xbe, 0x14, 0x3b, 0x82, 0xbe, 0x90, 0x7d, 0x91, 0xbe,
  0x07, 0x3c, 0xb6, 0xbc, 0x78, 0x90, 0x20, 0xbd, 0x32, 0x56, 0x33, 0xbe,
  0xa3, 0x0d, 0xa9, 0xbd, 0xdb, 0x15, 0x8c, 0xbc, 0x23, 0x3a, 0xc8, 0xbe,
  0x25, 0xfb, 0x6d, 0x3e, 0x76, 0xc5, 0xfc, 0xbd, 0x68, 0x66, 0x46, 0x3d,
  0x53, 0x1c, 0xad, 0x3e, 0xf2, 0x76, 0xb0, 0x3e, 0xc5, 0xa3, 0x17, 0x3e,
  0x9e, 0x93, 0x87, 0xbe, 0x71, 0xda, 0xf3, 0x3d, 0x5c, 0xbb, 0x58, 0xbd,
  0xcd, 0x11, 0x33, 0x3d, 0x88, 0x15, 0x2d, 0x3e, 0x70, 0x7a, 0x21, 0xbe,
  0x71, 0xa3, 0xf4, 0x3e, 0xdc, 0xdb, 0x39, 0x3e, 0x1e, 0x91, 0x81, 0xbe,
  0x98, 0x54, 0x4a, 0xbd, 0x95, 0x4a, 0x4b, 0x3e, 0x0e, 0x3e, 0x05, 0xbe,
  0x53, 0x47, 0x92, 0xbc, 0x38, 0x3d, 0xa2, 0xbd, 0xd2, 0xe0, 0x9e, 0xbe,
  0x02, 0x32, 0xc1, 0x3e, 0x0a, 0x2b, 0xa4, 0x3e, 0x65, 0x10, 0x57, 0x3e,
  0x05, 0x0e, 0x1a, 0xbe, 0xd7, 0x3e, 0x98, 0x3d, 0x3b, 0xa0, 0xa1, 0x3e,
  0x25, 0x23, 0x8f, 0xbe, 0x6c, 0x33, 0xf5, 0x3d, 0xcd, 0xfd, 0x53, 0xbe,
  0x01, 0xe3, 0x22, 0x3d, 0x5d, 0xa5, 0xd4, 0x3d, 0x06, 0x24, 0xcd, 0x3d,
  0x13, 0x4e, 0x22, 0xbd, 0xee, 0xfb, 0x34, 0xbe, 0x2e, 0xfc, 0xb5, 0x3e,
  0x44, 0x8b, 0xd4, 0xbd, 0xa5, 0x84, 0x5f, 0x3e, 0x00, 0x9c, 0xba, 0x3e,
  0x85, 0x43, 0x7e, 0x3d, 0xe5, 0x4a, 0xe6, 0xbd, 0xd7, 0x6a, 0xd9, 0x3d,
  0xb9, 0x14, 0x12, 0x3e, 0x59, 0x95, 0x51, 0xbd, 0x74, 0x12, 0x00, 0xbd,
  0x03, 0x3d, 0xa5, 0x3e, 0x1a, 0x99, 0x99, 0x3e, 0x16, 0x30, 0x1e, 0x3e,
  0x2d, 0x55, 0x83, 0x3e, 0x3f, 0x4b, 0xb0, 0xbd, 0x75, 0xd4, 0x44, 0x3e,
  0x6b, 0xef, 0x2d, 0xbd, 0xe3, 0x2f, 0x23, 0xbc, 0x55, 0x09, 0x61, 0x3e,
  0xc9, 0x3e, 0x70, 0x3e, 0x4f, 0xd0, 0x8b, 0xbd, 0x57, 0x93, 0x70, 0x3d,
  0xc7, 0xdd, 0xf5, 0x3d, 0x66, 0xbb, 0x98, 0x3e, 0x43, 0x75, 0xe3, 0xbd,
  0x2c, 0x67, 0xdc, 0xbc, 0xac, 0x80, 0xb7, 0x3e, 0x37, 0xc2, 0x41, 0x3e,
  0xf8, 0xbc, 0x2a, 0xbe, 0xd0, 0xaf, 0x92, 0x3d, 0x29, 0x09, 0xea, 0xbd,
  0xc2, 0xb3, 0xbd, 0xbd, 0x21, 0x3a, 0x20, 0x3e, 0xed, 0x5d, 0xd0, 0x3d,
  0x44, 0x68, 0xf5, 0x3e, 0x67, 0xbe, 0x16, 0xbc, 0xdd, 0x93, 0xb9, 0xbd,
  0x61, 0xfc, 0x96, 0x3d, 0x56, 0xb0, 0xbf, 0x3d, 0x82, 0x87, 0x2a, 0x3f,
  0xdb, 0x63, 0x12, 0x3e, 0x1d, 0x8c, 0x9d, 0x3d, 0xe3, 0x77, 0x31, 0x3f,
  0xb0, 0x17, 0xa2, 0xbd, 0xc2, 0x18, 0x96, 0xbe, 0x03, 0x6a, 0x2e, 0x3e,
  0x82, 0x88, 0x8d, 0x3b, 0x1c, 0x7b, 0x46, 0x3d, 0x69, 0xbc, 0x7e, 0xbc,
  0x7c, 0x1b, 0x8b, 0x3e, 0xed, 0x15, 0xb8, 0x3d, 0xe2, 0x72, 0xdf, 0xbd,
  0x2f, 0x2f, 0x84, 0x3e, 0x64, 0x57, 0x09, 0x3c, 0x25, 0xff, 0x14, 0xbe,
  0xdb, 0x36, 0x8b, 0x3e, 0x55, 0x74, 0x8f, 0xbe, 0xb6, 0x4a, 0x33, 0x3e,
  0xbb, 0x84, 0x83, 0x3e, 0xb6, 0x52, 0x4b, 0xbe, 0xb4, 0x27, 0x07, 0xbe,
  0x54, 0x4c, 0x8a, 0x3d, 0x57, 0x19, 0xdc, 0xbc, 0x83, 0x3f, 0x3b, 0x3d,
  0xb5, 0x61, 0xb5, 0x3e, 0xbb, 0x0d, 0xb4, 0xbe, 0x3b, 0x3f, 0x1b, 0xbd,
  0x1d, 0x15, 0x42, 0xbd, 0x5b, 0x50, 0x08, 0xbd, 0x59, 0xe9, 0x15, 0xbd,
  0x28, 0x15, 0x21, 0xbe, 0xf6, 0x37, 0xa7, 0x3e, 0x9c, 0x1d, 0x49, 0xbb,
  0x97, 0x1b, 0x42, 0x3e, 0xe3, 0x2e, 0x11, 0xbf, 0x67, 0xd4, 0xaf, 0xbe,
  0x50, 0x18, 0xec, 0x3e, 0x80, 0xd6, 0x00, 0xbe, 0xdf, 0xb3, 0xfa, 0xbd,
  0xca, 0x4e, 0x69, 0xbe, 0x21, 0x52, 0x17, 0xbe, 0x32, 0x24, 0xbe, 0xbe,
  0x0d, 0xe9, 0x12, 0xbf, 0xcf, 0x5c, 0xb8, 0x3e, 0x2f, 0xe2, 0x9f, 0xbe,
  0x9b, 0x1b, 0x13, 0xbd, 0x2a, 0x76, 0x82, 0x3e, 0xd5, 0xce, 0x00, 0xbe,
  0xae, 0xd0, 0x9c, 0x3e, 0xac, 0xa7, 0x06, 0xbf, 0xcd, 0x8b, 0xec, 0xbe,
  0x98, 0xc5, 0x90, 0x3e, 0x11, 0xe6, 0xa3, 0x3d, 0x66, 0x32, 0x12, 0xbe,
  0xa8, 0x79, 0x47, 0xbd, 0x0c, 0x71, 0x9f, 0xbe, 0xce, 0xec, 0x1a, 0x3e,
  0x6b, 0xe9, 0xe3, 0x3e, 0x88, 0xb7, 0x30, 0xbe, 0xbc, 0x5a, 0x61, 0xbc,
  0x28, 0xf0, 0xa7, 0xbe, 0x75, 0x3e, 0xdd, 0x3c, 0x4c, 0x7a, 0x25, 0x3e,
  0xfb, 0x50, 0x46, 0x3d, 0x65, 0x81, 0x13, 0x3e, 0xee, 0x04, 0x06, 0x3e,
  0xc8, 0x49, 0xf1, 0x3e, 0xb3, 0x52, 0x87, 0xbd, 0x74, 0x05, 0x30, 0x3e,
  0x5b, 0x6a, 0x1d, 0xbe, 0x44, 0x52, 0x62, 0xbe, 0x33, 0x84, 0x37, 0xbe,
  0xef, 0xb9, 0xae, 0x3d, 0x48, 0xab, 0x9b, 0x3e, 0x89, 0x72, 0x28, 0xbe,
  0xe5, 0x40, 0x1a, 0xbe, 0xb0, 0xc7, 0x33, 0xbd, 0x80, 0xe7, 0xd9, 0xbb,
  0x81, 0xe1, 0x2d, 0x3c, 0x05, 0x8b, 0x49, 0x3e, 0x94, 0xc2, 0x8a, 0x3c,
  0x70, 0xc7, 0xb7, 0xbb, 0x31, 0x5c, 0x7b, 0x3d, 0x92, 0x70, 0x12, 0xbd,
  0x50, 0xec, 0x86, 0x3e, 0x84, 0x54, 0x76, 0xbe, 0x4f, 0xa7, 0x30, 0xbe,
  0x66, 0xae, 0x64, 0xbe, 0xbe, 0xe5, 0x02, 0xbe, 0xdd, 0xf1, 0x85, 0xbd,
  0x1a, 0xe9, 0xf7, 0x3d, 0x67, 0xfb, 0x9c, 0xbc, 0x66, 0x80, 0x42, 0xbd,
  0x04, 0xf5, 0x39, 0x3d, 0xab, 0x7c, 0x23, 0xbb, 0x2c, 0x0f, 0x35, 0x3e,
  0xbe, 0x1e, 0x65, 0x3d, 0xfb, 0xe5, 0x62, 0x3d, 0xf7, 0x45, 0xe2, 0x3c,
  0xc5, 0xcf, 0x13, 0xbd, 0x83, 0x69, 0x58, 0x3c, 0xc4, 0xa0, 0x36, 0xbe,
  0x45, 0x09, 0x1f, 0xbe, 0x8f, 0xab, 0xb7, 0xbd, 0x64, 0x1e, 0x5a, 0xbe,
  0x49, 0xe4, 0x05, 0x3e, 0x02, 0xbc, 0xce, 0x3d, 0x12, 0xd8, 0xfe, 0xbc,
  0x52, 0x06, 0x71, 0x3d, 0xcd, 0xab, 0xd8, 0xb9, 0xbe, 0x23, 0xf9, 0x3c,
  0xa4, 0x44, 0x1b, 0x3e, 0x91, 0xca, 0x41, 0x3b, 0x68, 0xf7, 0x67, 0xbd,
  0x53, 0x3f, 0x48, 0x3e, 0xe9, 0x66, 0x29, 0xbe, 0x38, 0x40, 0x6e, 0xbd,
  0x22, 0xfe, 0x2f, 0x3d, 0x28, 0xf1, 0xdb, 0xbc, 0x4b, 0xf3, 0x7f, 0xbd,
  0x02, 0xf3, 0xb5, 0x3d, 0x56, 0x91, 0x1c, 0x3e, 0x37, 0xd9, 0x03, 0xbe,
  0x33, 0x3c, 0x9b, 0xbe, 0x68, 0x5f, 0x51, 0xbd, 0xf6, 0x93, 0x12, 0xbd,
  0xee, 0x4d, 0x69, 0xbe, 0xe9, 0xdb, 0x42, 0x3e, 0xb5, 0x54, 0x6c, 0xbe,
  0xca, 0xad, 0x2f, 0x3d, 0x14, 0xa0, 0xc4, 0x3d, 0xf8, 0x63, 0xa0, 0xbe,
  0xf4, 0xb5, 0x64, 0xbd, 0x5b, 0x47, 0xa3, 0xbe, 0x02, 0x72, 0x12, 0xbe,
  0x20, 0x42, 0x7b, 0xbe, 0x38, 0xcf, 0xb3, 0x3c, 0xd6, 0x18, 0x97, 0xba,
  0x1c, 0x24, 0xcc, 0xbd, 0xc8, 0x06, 0xea, 0x3e, 0xce, 0xba, 0xfd, 0xbd,
  0x68, 0xc9, 0xb2, 0xbc, 0x43, 0x18, 0x64, 0xbd, 0xe0, 0x90, 0x09, 0x3e,
  0x1f, 0x9b, 0x04, 0x3d, 0x4d, 0xe9, 0x04, 0xbe, 0xd5, 0x50, 0x2a, 0xbe,
  0x61, 0xf4, 0x55, 0xbe, 0x91, 0x0d, 0x9f, 0x3e, 0xe6, 0x4c, 0x88, 0xbd,
  0x82, 0xeb, 0x4a, 0x3f, 0x1c, 0x0c, 0x95, 0xbe, 0x03, 0x25, 0x13, 0x3f,
  0xef, 0xbd, 0x63, 0xbe, 0xa1, 0x48, 0x6e, 0xbe, 0x4e, 0x1f, 0x8a, 0x3e,
  0x92, 0x89, 0x89, 0xbe, 0xec, 0x82, 0xa5, 0xbd, 0x4f, 0x5b, 0x9c, 0xbd,
  0x20, 0x7f, 0x10, 0xbd, 0xc0, 0x08, 0x62, 0x3e, 0xf3, 0xa9, 0xcc, 0xbe,
  0xfc, 0xce, 0xab, 0xbe, 0xb6, 0xbe, 0x93, 0x3e, 0x7e, 0x72, 0x85, 0x3e,
  0x0d, 0x37, 0x01, 0xbe, 0xfa, 0x9b, 0x71, 0x3f, 0x3c, 0xf4, 0x46, 0xbe,
  0x18, 0x39, 0x0a, 0x3f, 0x42, 0x28, 0x9f, 0x3e, 0x8a, 0xcf, 0xc9, 0xbb,
  0xab, 0x4c, 0x82, 0x3c, 0xa5, 0x2a, 0x14, 0xbe, 0x83, 0x52, 0x0a, 0x3d,
  0x1d, 0x0a, 0xf8, 0x3c, 0x41, 0x11, 0x0b, 0xbd, 0x01, 0xf1, 0xf9, 0xbc,
  0x90, 0x79, 0x9f, 0xbd, 0x18, 0x31, 0x90, 0x3e, 0xe7, 0x30, 0xe6, 0x3d,
  0x3f, 0xad, 0xba, 0xbc, 0x0b, 0x7e, 0x83, 0xbe, 0x5f, 0x83, 0xa5, 0x3f,
  0x65, 0x54, 0x8e, 0x3d, 0x01, 0xf7, 0x13, 0x3e, 0x46, 0xe6, 0x58, 0x3e,
  0x84, 0x73, 0x85, 0x3e, 0x4a, 0xe5, 0xc6, 0xbe, 0x55, 0x4f, 0xad, 0xbb,
  0xf7, 0xc1, 0x23, 0xbd, 0x27, 0x62, 0xf9, 0xbd, 0x00, 0xab, 0x32, 0x3d,
  0x8f, 0x4d, 0x37, 0xbd, 0x09, 0xdd, 0xc8, 0xbd, 0xfd, 0x0f, 0x59, 0x3e,
  0x6a, 0x36, 0x92, 0xbe, 0x6e, 0x18, 0x34, 0x3e, 0x02, 0x4c, 0x86, 0xbe,
  0x7f, 0xa1, 0xa1, 0x3f, 0xab, 0x6d, 0x20, 0xbe, 0xb5, 0x03, 0x14, 0x3f,
  0x84, 0x91, 0x2b, 0xbe, 0xd7, 0xa0, 0x79, 0x3d, 0x21, 0x87, 0x5f, 0xbe,
  0xbf, 0x22, 0x95, 0xbd, 0xca, 0x35, 0xbc, 0xbd, 0xcd, 0x2f, 0x2b, 0xbe,
  0xe4, 0x96, 0x4e, 0x3e, 0x68, 0x8f, 0x57, 0xbe, 0x55, 0x14, 0x0d, 0xbe,
  0x4f, 0xc6, 0x8a, 0xbd, 0x18, 0x20, 0xbb, 0xbe, 0x4a, 0xba, 0xaa, 0x3e,
  0x0e, 0xb6, 0x02, 0xbe, 0xd1, 0x30, 0xae, 0x3f, 0xbc, 0x1f, 0x3d, 0xbd,
  0xb4, 0x1f, 0xe3, 0x3e, 0xcd, 0x09, 0x62, 0xbe, 0xad, 0xa2, 0x98, 0x3d,
  0x76, 0x66, 0xa1, 0x3e, 0xf6, 0x12, 0x0a, 0xbe, 0x35, 0x2f, 0x0b, 0xbe,
  0x44, 0xa9, 0x5f, 0x3c, 0x18, 0x56, 0x4c, 0x3c, 0xd9, 0x97, 0xad, 0xbd,
  0x0c, 0x71, 0x71, 0xbe, 0xc2, 0x6a, 0x6e, 0xbe, 0x5d, 0x37, 0x9a, 0x3d,
  0x36, 0x62, 0xd7, 0x3e, 0x12, 0x0e, 0x29, 0xbe, 0xa7, 0x1d, 0x94, 0x3f,
  0x54, 0xea, 0x65, 0x3c, 0x3e, 0x46, 0x27, 0x3f, 0x0e, 0xd6, 0x8f, 0xbc,
  0x24, 0x95, 0x67, 0x3e, 0x4a, 0x07, 0xd1, 0x3e, 0xa5, 0x83, 0xd9, 0x3b,
  0x51, 0xb2, 0x35, 0xbc, 0x0c, 0x51, 0x29, 0x3e, 0xa4, 0x11, 0x0b, 0x3e,
  0xf6, 0xb7, 0x83, 0x3e, 0xbd, 0xde, 0x6e, 0xbe, 0xe9, 0xf0, 0xee, 0x3b,
  0x36, 0x33, 0xcf, 0x3d, 0x93, 0xf3, 0x8b, 0x3e, 0xa5, 0x49, 0x00, 0xbf,
  0xcb, 0x03, 0x44, 0x3f, 0x76, 0x91, 0x52, 0xbe, 0x12, 0x49, 0xaf, 0xbd,
  0x90, 0xcc, 0xc7, 0x3e, 0x9f, 0x28, 0x04, 0x3e, 0xbe, 0xda, 0xba, 0xbe,
  0x3a, 0x4f, 0x92, 0xbe, 0xcf, 0xa1, 0x3d, 0xbd, 0x56, 0x4e, 0x74, 0xbd,
  0xdf, 0x08, 0x69, 0x3e, 0x45, 0xa5, 0xc1, 0xbd, 0xb5, 0x8a, 0x96, 0xbd,
  0x31, 0x18, 0x6a, 0xbd, 0xf1, 0x30, 0x41, 0xbd, 0xe9, 0xc7, 0x7d, 0xbe,
  0xd4, 0x0c, 0x6a, 0x3d, 0x2c, 0xf1, 0xf4, 0x3e, 0xc7, 0xe8, 0x84, 0x3d,
  0xf0, 0x1b, 0x09, 0x3f, 0xfc, 0xb8, 0xd3, 0xbb, 0x6b, 0x23, 0x54, 0xbd,
  0xec, 0x5a, 0xa3, 0xbe, 0x48, 0x5b, 0x13, 0xbb, 0x9d, 0x22, 0x35, 0x3c,
  0xbf, 0xed, 0x05, 0xbe, 0x3e, 0x8f, 0x01, 0x3e, 0x29, 0x7b, 0x36, 0xbd,
  0x97, 0xc6, 0xe2, 0x3a, 0xd1, 0x9d, 0x8f, 0x3c, 0xed, 0x6f, 0x2d, 0xbe,
  0x5a, 0xac, 0xc4, 0x3d, 0xd1, 0x1e, 0x04, 0xbe, 0xbc, 0xf8, 0x49, 0x3f,
  0x4f, 0x2f, 0x2d, 0x3c, 0x9d, 0x6f, 0x51, 0x3f, 0x12, 0xff, 0x13, 0xbd,
  0x55, 0x86, 0x72, 0x3e, 0x7d, 0xb1, 0xb2, 0x3d, 0x28, 0x27, 0x1c, 0xbd,
  0x21, 0x16, 0x99, 0xbd, 0x91, 0x1d, 0x41, 0xbe, 0x4a, 0xcb, 0x41, 0xbe,
  0x5f, 0x1b, 0xd3, 0xbd, 0x34, 0x2e, 0xd5, 0xbd, 0xb7, 0xf4, 0xd4, 0xbd,
  0xe8, 0xca, 0x16, 0xbe, 0x5c, 0xbd, 0x4c, 0xbe, 0x7d, 0x93, 0x83, 0x3e,
  0xb8, 0xc0, 0x05, 0x3f, 0x8d, 0x35, 0x64, 0xbe, 0x47, 0xc4, 0x17, 0x3f,
  0x2a, 0x1d, 0x6f, 0xbc, 0xfa, 0x23, 0x77, 0x3e, 0x44, 0x33, 0x96, 0x3d,
  0x8c, 0x40, 0xe2, 0xbd, 0x37, 0x28, 0x91, 0xbc, 0x0d, 0xb2, 0x0d, 0xbe,
  0xf5, 0x5d, 0x7b, 0xbd, 0x47, 0x10, 0xd9, 0xbc, 0xc1, 0x2d, 0xd6, 0xbd,
  0x66, 0x51, 0x14, 0xbe, 0xf3, 0xb9, 0xe2, 0xbc, 0x77, 0xef, 0x82, 0x3e,
  0x59, 0xbc, 0xa1, 0xbe, 0xd7, 0x0f, 0x01, 0x3f, 0xf2, 0x40, 0xb8, 0xbb,
  0x4f, 0xe4, 0x22, 0x3f, 0x8d, 0x1b, 0xd3, 0xbd, 0xf5, 0xd8, 0x2f, 0x3d,
  0xf5, 0x75, 0xc4, 0xbd, 0x5e, 0x0a, 0x6d, 0xbe, 0x8a, 0x44, 0xd8, 0xbd,
  0x0c, 0xe4, 0x87, 0xbe, 0x06, 0x54, 0x80, 0x3d, 0x5c, 0x08, 0x0f, 0x3e,
  0x96, 0xa4, 0x17, 0x3b, 0xa2, 0x99, 0x00, 0xbe, 0x75, 0x40, 0x8b, 0x3d,
  0x39, 0xd9, 0x92, 0xbd, 0xf1, 0xd2, 0x5c, 0xbe, 0xc5, 0x29, 0xe1, 0x3e,
  0x7e, 0xbf, 0x95, 0xbe, 0x3b, 0xc4, 0x0f, 0x3f, 0x44, 0x51, 0x59, 0x3b,
  0x6e, 0xd9, 0xc2, 0x3e, 0xd8, 0x2d, 0x2f, 0x3e, 0xf8, 0x74, 0x03, 0xbe,
  0xf0, 0x64, 0x10, 0xbd, 0xdd, 0x2c, 0x00, 0xbe, 0x0c, 0x7f, 0x0c, 0xbd,
  0xfc, 0x10, 0x0a, 0xbe, 0x4c, 0xab, 0xa2, 0xbd, 0x7e, 0x11, 0xcb, 0xbe,
  0x77, 0xf0, 0x42, 0xbe, 0x37, 0xc6, 0xb5, 0x3e, 0x13, 0x6f, 0x97, 0xbe,
  0x32, 0x05, 0x3e, 0x3f, 0x31, 0x1b, 0x16, 0xbe, 0x7e, 0xd1, 0x34, 0x3f,
  0x77, 0x4e, 0x19, 0xbe, 0xb8, 0xe8, 0x86, 0x3e, 0xf1, 0xe1, 0x5f, 0x3e,
  0x69, 0x23, 0x54, 0xbe, 0xc7, 0x02, 0x69, 0xbd, 0x5c, 0x4d, 0x02, 0x3e,
  0xfe, 0x15, 0x6f, 0xbd, 0x87, 0xb8, 0x0e, 0x3e, 0xf2, 0xc6, 0x4a, 0xbe,
  0x2b, 0x40, 0x9d, 0xbe, 0x60, 0xd1, 0xc0, 0x3e, 0xbc, 0xbb, 0x20, 0x3e,
  0xd6, 0x59, 0xef, 0xbd, 0x50, 0xe5, 0xbf, 0x3e, 0xf5, 0x7d, 0x03, 0xbe,
  0x35, 0xa7, 0x04, 0x3e, 0xd4, 0x7b, 0xfb, 0x3c, 0x10, 0x82, 0xf2, 0x3e,
  0x18, 0x9c, 0x89, 0x3e, 0xce, 0x7b, 0x72, 0xbd, 0xfe, 0x36, 0xd0, 0x3c,
  0x2e, 0xe4, 0xd6, 0x3e, 0x71, 0x0b, 0x18, 0x3c, 0x6b, 0xfc, 0x14, 0x3e,
  0xc4, 0x39, 0x80, 0xbe, 0xb3, 0x96, 0x68, 0x3e, 0xce, 0xe8, 0xe1, 0x3e,
  0xc8, 0xf4, 0x1d, 0xbf, 0x1e, 0x09, 0x0d, 0x3e, 0x43, 0x00, 0xe6, 0xbd,
  0x09, 0x8a, 0x82, 0x3c, 0x7c, 0xe2, 0xa5, 0x3d, 0xb2, 0x62, 0x1d, 0x3e,
  0x00, 0xf1, 0x75, 0x3e, 0x7d, 0x31, 0x44, 0xbf, 0xcf, 0x7d, 0x6f, 0x3e,
  0x11, 0xc5, 0x9d, 0x3d, 0x70, 0x7e, 0x68, 0x3d, 0x27, 0xef, 0xff, 0x3d,
  0x76, 0x67, 0x73, 0xbe, 0xf9, 0xa5, 0xaa, 0x3e, 0x5a, 0x97, 0x31, 0x3e,
  0x78, 0x89, 0xe6, 0xbe, 0x58, 0x08, 0x36, 0xbe, 0x47, 0x58, 0xaa, 0x3d,
  0xe3, 0x41, 0x23, 0xbe, 0xc6, 0xaa, 0xc3, 0x3d, 0x24, 0x6c, 0x7a, 0x3e,
  0x99, 0xb8, 0x1d, 0xbe, 0x43, 0x96, 0x7a, 0x3e, 0x1f, 0x38, 0x2f, 0x3b,
  0x27, 0x73, 0x5d, 0x3d, 0xc9, 0x52, 0x80, 0xbc, 0xad, 0x12, 0x86, 0xbc,
  0xea, 0x8e, 0xa6, 0x3e, 0xed, 0x49, 0x30, 0xbd, 0xfd, 0xea, 0x65, 0x3e,
  0x6f, 0x0d, 0x7b, 0xbe, 0xfe, 0x77, 0x3a, 0xbd, 0x0a, 0xce, 0x37, 0x3e,
  0x5c, 0x53, 0x34, 0xbe, 0x3f, 0x07, 0x0e, 0xbe, 0x24, 0x43, 0x1d, 0x3e,
  0xe6, 0x4a, 0xde, 0x3d, 0xa3, 0xe1, 0x21, 0x3e, 0xf7, 0xa4, 0x8f, 0x3e,
  0x09, 0x9c, 0xb8, 0x3d, 0xb7, 0x49, 0xcb, 0x3d, 0x1d, 0x80, 0x3f, 0x3d,
  0x6f, 0x03, 0x1d, 0x3e, 0x5b, 0x0c, 0xb7, 0x3e, 0xc5, 0x5a, 0x98, 0x3e,
  0x38, 0x4f, 0xa7, 0x3d, 0xfc, 0x72, 0x73, 0x3d, 0xc9, 0xa0, 0xcb, 0x3e,
  0xe5, 0x13, 0x67, 0x3e, 0x33, 0x84, 0x36, 0x3e, 0x0f, 0x3e, 0xbf, 0xbd,
  0x37, 0x59, 0xaa, 0xbb, 0x88, 0xb2, 0x5d, 0xbd, 0x3b, 0xab, 0x3c, 0x3e,
  0x32, 0x91, 0x14, 0x3e, 0xd5, 0xfe, 0xc2, 0x3d, 0xbe, 0x9f, 0x43, 0x3e,
  0xbe, 0x11, 0x9c, 0x3d, 0x11, 0xa6, 0x11, 0x3e, 0xe1, 0x73, 0xb5, 0x3e,
  0x1b, 0x4a, 0x69, 0xbb, 0x18, 0xe6, 0x2c, 0x3e, 0x10, 0x0c, 0x5f, 0x3e,
  0xe1, 0x28, 0xe1, 0x3d, 0x0d, 0xaf, 0x58, 0xbe, 0x0d, 0x22, 0x21, 0x3e,
  0x54, 0xeb, 0xa3, 0xbd, 0x83, 0x50, 0x8b, 0xbc, 0x9c, 0x62, 0x1e, 0x3e,
  0x56, 0xad, 0xaf, 0x3e, 0x90, 0x34, 0xce, 0x3c, 0x62, 0xd5, 0x5d, 0xbe,
  0x36, 0x6b, 0xc8, 0x3d, 0x4a, 0x9b, 0x57, 0xbd, 0xf2, 0xc9, 0x31, 0x3d,
  0x4f, 0x41, 0x91, 0x3e, 0x63, 0xde, 0x08, 0xbd, 0x02, 0xc1, 0x33, 0x3c,
  0xf2, 0x47, 0xc1, 0x3e, 0xfb, 0x17, 0xdd, 0xbd, 0x52, 0xb8, 0x86, 0xbe,
  0x0a, 0xfd, 0xc8, 0x3e, 0x2b, 0xb4, 0x82, 0x3e, 0x67, 0x15, 0x7c, 0x3e,
  0xd8, 0x2c, 0xc4, 0x3d, 0xf3, 0x92, 0xd7, 0x3d, 0xf8, 0x40, 0x99, 0x3d,
  0xbd, 0x09, 0x9f, 0xbe, 0x2f, 0xb9, 0x24, 0x3d, 0xe9, 0x56, 0xf0, 0x39,
  0xd5, 0x13, 0x14, 0xbe, 0xe4, 0xb0, 0xa5, 0x3d, 0x6e, 0x32, 0x69, 0xbe,
  0x72, 0x4d, 0x3b, 0x3e, 0x35, 0xa3, 0xa4, 0x3e, 0x7b, 0x46, 0xa8, 0xbe,
  0x38, 0x0b, 0xbf, 0x3c, 0x7f, 0xf4, 0x77, 0x3d, 0xc6, 0x19, 0xaa, 0xbd,
  0x7c, 0x63, 0x18, 0xbc, 0xed, 0x0e, 0x28, 0x3e, 0x91, 0xee, 0x37, 0x3c,
  0x71, 0x40, 0x75, 0xbf, 0x6a, 0x66, 0x09, 0xbf, 0x24, 0x68, 0xc6, 0xbd,
  0xe9, 0x78, 0x14, 0xbc, 0x23, 0xaa, 0x38, 0xbe, 0xa6, 0xb6, 0x72, 0x3e,
  0x02, 0x3c, 0x91, 0xbd, 0x71, 0xac, 0x76, 0x3e, 0x35, 0xd9, 0x9f, 0xbe,
  0x5f, 0xda, 0xc5, 0xbe, 0x34, 0xe8, 0x1f, 0x3d, 0xa7, 0x87, 0xef, 0xbd,
  0x98, 0x11, 0x46, 0xbe, 0x6a, 0x73, 0x05, 0x3e, 0xdb, 0xe1, 0x66, 0x3d,
  0x05, 0x1d, 0xf7, 0x3d, 0x78, 0x87, 0x2b, 0xbd, 0x82, 0x8a, 0x57, 0x3d,
  0x9c, 0xeb, 0x94, 0x3c, 0x05, 0x47, 0xb9, 0xbe, 0x80, 0xd5, 0x00, 0xbe,
  0x61, 0xe8, 0x1b, 0xbd, 0xe6, 0xb3, 0xdb, 0xbd, 0xd4, 0x81, 0x30, 0x3e,
  0xec, 0x6a, 0x98, 0x3e, 0x2a, 0xec, 0x8f, 0xbd, 0x51, 0xc1, 0x1d, 0x3e,
  0xda, 0x97, 0x4a, 0x3e, 0x3d, 0x97, 0x22, 0xbe, 0xd2, 0x0e, 0x81, 0xbd,
  0xb7, 0x47, 0x3b, 0xbe, 0x66, 0xbb, 0x13, 0xbe, 0x35, 0x2b, 0xa2, 0x3d,
  0xc6, 0x09, 0xdf, 0x3d, 0xd9, 0x52, 0x2e, 0xbe, 0xb0, 0xc6, 0xac, 0x3d,
  0x91, 0xc7, 0x74, 0xbe, 0x2e, 0x70, 0xfb, 0x3e, 0xd1, 0xc6, 0xc1, 0xbc,
  0xc4, 0x52, 0xe6, 0x3d, 0xe9, 0xc5, 0xeb, 0xbd, 0xff, 0x88, 0x08, 0x3e,
  0x45, 0x30, 0x8f, 0x3d, 0xc2, 0xd5, 0x18, 0xbe, 0x28, 0x92, 0xd8, 0xbc,
  0x57, 0xd5, 0x58, 0xbe, 0xc7, 0x66, 0x1c, 0xbe, 0x9b, 0x63, 0x5a, 0xbe,
  0x19, 0xa2, 0x1c, 0xbe, 0xe8, 0x9b, 0x76, 0x3e, 0xd1, 0x88, 0x3e, 0xbe,
  0x91, 0xb7, 0x8d, 0xbd, 0x44, 0xae, 0xb1, 0x3b, 0x67, 0xf8, 0x63, 0x3d,
  0x1c, 0x3e, 0x1c, 0xbd, 0xdd, 0x6e, 0xd8, 0x3d, 0x20, 0x42, 0x39, 0x3c,
  0x3a, 0x54, 0xc8, 0x3e, 0x9e, 0x50, 0x09, 0xbc, 0x42, 0x9f, 0xe3, 0xbc,
  0x0c, 0xbe, 0x11, 0xbd, 0x17, 0xeb, 0xd3, 0xbd, 0x49, 0xe1, 0xa1, 0xbc,
  0xc3, 0x3f, 0x27, 0x3e, 0x51, 0x9f, 0x56, 0x3e, 0xff, 0xc0, 0x0a, 0xbd,
  0x24, 0x6a, 0xe3, 0x3d, 0x66, 0x37, 0xb8, 0xbd, 0x97, 0x0b, 0x26, 0xbe,
  0x22, 0xae, 0x4a, 0x3e, 0xd1, 0x69, 0x2d, 0xbd, 0xcd, 0x0e, 0x2b, 0x3e,
  0xb4, 0x76, 0x17, 0x3e, 0x79, 0xa3, 0xa1, 0x3d, 0xaf, 0xcb, 0x32, 0xbe,
  0x52, 0x92, 0x93, 0xbd, 0xda, 0x83, 0x08, 0x3d, 0xb5, 0x4f, 0xe1, 0xbd,
  0x68, 0x1c, 0x09, 0x3e, 0xee, 0x03, 0xed, 0xbd, 0x4f, 0xfe, 0x60, 0x3e,
  0xee, 0xe1, 0xfd, 0x3c, 0x19, 0xe7, 0x1e, 0xbe, 0xd2, 0x80, 0xc0, 0xbc,
  0xe0, 0x74, 0xd6, 0x3d, 0x65, 0xf2, 0xe7, 0x3d, 0x25, 0x5a, 0x2d, 0xbc,
  0x6b, 0x64, 0x99, 0x3e, 0x28, 0xe8, 0x95, 0x3d, 0xd4, 0xae, 0xd3, 0x3d,
  0x58, 0x47, 0x84, 0x3d, 0xfa, 0x81, 0x27, 0x3e, 0x82, 0xee, 0xe1, 0x3c,
  0x10, 0x5c, 0x1d, 0xbd, 0xea, 0xa4, 0x08, 0x3d, 0xef, 0x70, 0x06, 0x3e,
  0x8c, 0xbb, 0x07, 0x3d, 0x3c, 0x96, 0x77, 0xbe, 0xe2, 0x47, 0x0b, 0x3d,
  0xf7, 0xe2, 0x15, 0xbe, 0xfc, 0xc9, 0x41, 0xbe, 0x23, 0x8c, 0x93, 0x3e,
  0x29, 0x66, 0x9b, 0xbd, 0x1d, 0x65, 0xa6, 0x3e, 0xb4, 0x98, 0xbb, 0xbd,
  0x52, 0x8c, 0x1a, 0x3e, 0x96, 0x99, 0xb3, 0x3c, 0x7e, 0x5f, 0x52, 0xbe,
  0x7f, 0x15, 0x5e, 0xbe, 0x7d, 0xe3, 0x41, 0xbe, 0x6f, 0x0d, 0xe4, 0x3d,
  0x07, 0x59, 0x88, 0xbe, 0x18, 0x7d, 0x6e, 0xbe, 0xc1, 0x16, 0xe8, 0x3d,
  0x81, 0xe6, 0x7b, 0x3d, 0x87, 0x39, 0x25, 0xbe, 0x71, 0x58, 0x85, 0x3d,
  0xdc, 0xbe, 0x67, 0x3d, 0x3d, 0x6d, 0x8d, 0xbd, 0x76, 0xb9, 0xaa, 0x3c,
  0xb3, 0xcc, 0x20, 0xbc, 0x2a, 0xb5, 0xaa, 0x3d, 0x4f, 0x4d, 0x9e, 0x3e,
  0x7e, 0xc8, 0x51, 0xbd, 0x52, 0x2a, 0x7a, 0x3f, 0xb1, 0x11, 0x15, 0x3e,
  0x9b, 0xa4, 0x5a, 0x3e, 0xa6, 0xe3, 0x8a, 0xbe, 0x6e, 0x7e, 0xa3, 0xbd,
  0xb2, 0x7b, 0x18, 0x3d, 0xae, 0x6d, 0xd6, 0xbd, 0x6d, 0x62, 0xb0, 0xbe,
  0xa2, 0xe2, 0xe6, 0xbb, 0x10, 0xe1, 0xad, 0x3d, 0x73, 0x8b, 0x10, 0x3d,
  0x04, 0x2f, 0x33, 0xbe, 0xa2, 0x13, 0xe8, 0xbd, 0x48, 0x18, 0x93, 0x3e,
  0xed, 0x7e, 0xf2, 0x3d, 0xfc, 0xcd, 0x6c, 0xbe, 0x0f, 0x41, 0x8c, 0x3f,
  0xaa, 0xb2, 0x8d, 0x3d, 0x56, 0xf1, 0x9b, 0x3e, 0x93, 0x62, 0xfc, 0x3d,
  0x7b, 0x3f, 0x3e, 0x3e, 0x8d, 0x2c, 0x86, 0xbb, 0x88, 0xa3, 0x99, 0xbe,
  0x5c, 0xbc, 0x16, 0xbe, 0xee, 0x37, 0xeb, 0x3d, 0xa3, 0xba, 0xe0, 0xbd,
  0x5b, 0x07, 0x08, 0xbe, 0x53, 0x72, 0xc0, 0x3d, 0x3e, 0x1f, 0x4e, 0x3e,
  0xb4, 0x15, 0x3a, 0xbe, 0x9b, 0xc7, 0x4f, 0xbe, 0xf4, 0xa6, 0x25, 0xbe,
  0x93, 0xd6, 0x9e, 0x3f, 0x6d, 0x38, 0x6b, 0xbe, 0x00, 0x18, 0x05, 0x3f,
  0xa6, 0xa5, 0x0e, 0x3e, 0x9e, 0xe8, 0x1b, 0x3d, 0xf4, 0x5c, 0xbc, 0xbc,
  0x46, 0xb9, 0x80, 0x3c, 0x98, 0xb6, 0x34, 0xbe, 0x7f, 0x4b, 0x0d, 0xbe,
  0x90, 0xea, 0x29, 0xbd, 0x54, 0xe3, 0x00, 0x3e, 0xd4, 0xac, 0x9c, 0xbc,
  0x15, 0x42, 0xee, 0x3d, 0x8e, 0xdb, 0x1d, 0x3d, 0xc7, 0x9a, 0xc4, 0xbd,
  0x5d, 0x92, 0xdb, 0xbd, 0xfd, 0xb2, 0x8d, 0x3f, 0x0a, 0x6e, 0xd7, 0x3d,
  0x85, 0x19, 0xed, 0x3e, 0x70, 0x21, 0xbd, 0xbd, 0x2e, 0xea, 0x48, 0x3e,
  0xfa, 0x36, 0x0c, 0xbd, 0xf3, 0xba, 0x95, 0xbd, 0x1d, 0x85, 0x33, 0xbc,
  0x9b, 0x2b, 0x67, 0xbe, 0xf8, 0x9a, 0xb7, 0x3d, 0xe5, 0xe5, 0x4f, 0x3e,
  0x75, 0x46, 0x49, 0xbd, 0xc1, 0x3c, 0x51, 0xbe, 0xc2, 0x9d, 0x7c, 0xbe,
  0xb9, 0xb5, 0x33, 0xbd, 0x3b, 0xe3, 0x7c, 0x3c, 0x2e, 0xe9, 0xa5, 0x3f,
  0x84, 0xd7, 0xac, 0xbc, 0x1e, 0x7b, 0xeb, 0x3e, 0xa5, 0x1b, 0x3f, 0x3e,
  0x6e, 0x99, 0x9c, 0x3e, 0x17, 0x6b, 0xb0, 0xbd, 0x76, 0x3d, 0x7d, 0xbd,
  0xd3, 0x69, 0x89, 0xbe, 0x7d, 0x13, 0x40, 0x3e, 0xc8, 0x74, 0x4f, 0x3e,
  0x69, 0x00, 0x05, 0xbd, 0xc6, 0x1a, 0x33, 0x3c, 0xc6, 0x41, 0xad, 0xbd,
  0x87, 0xdd, 0x06, 0xbe, 0x4f, 0x6f, 0x78, 0x3d, 0xa1, 0x1c, 0x57, 0xbe,
  0xd4, 0xbd, 0x64, 0x3f, 0x19, 0x5a, 0x43, 0xbd, 0xe3, 0xf0, 0x0f, 0x3f,
  0x73, 0xad, 0x30, 0x3e, 0xd3, 0x10, 0x74, 0x3c, 0xf7, 0x64, 0xc6, 0x3c,
  0xc9, 0x4c, 0x81, 0xbe, 0x73, 0xc2, 0x89, 0x3d, 0x42, 0x96, 0xfe, 0xbc,
  0x9f, 0x07, 0x06, 0x3e, 0x57, 0x9e, 0x96, 0xbd, 0xb5, 0x19, 0xd2, 0xbd,
  0x4a, 0x96, 0x17, 0x3e, 0x1e, 0xdd, 0x33, 0xbd, 0xca, 0x0d, 0x19, 0xbe,
  0x71, 0xde, 0x80, 0xbe, 0xd9, 0xf1, 0x6b, 0x3f, 0xcb, 0x92, 0x0f, 0x3d,
  0xc3, 0xce, 0x08, 0xbd, 0xf9, 0x38, 0x0b, 0xbe, 0xf0, 0x9d, 0xf2, 0x3d,
  0x34, 0xe7, 0x87, 0x3c, 0x99, 0x34, 0x16, 0xbc, 0x09, 0xe6, 0xb7, 0xbd,
  0xe1, 0xc2, 0x40, 0xbe, 0x22, 0xa8, 0xa3, 0x3e, 0xea, 0xa2, 0x86, 0x3d,
  0xad, 0x08, 0x5b, 0xbb, 0xf2, 0xfe, 0x08, 0xbe, 0x44, 0x30, 0x92, 0xbd,
  0x23, 0xab, 0x22, 0xbe, 0xfe, 0x8e, 0x5c, 0x3e, 0xf1, 0x75, 0x90, 0x3d,
  0xb0, 0x01, 0x6c, 0xbe, 0x6b, 0xc2, 0x3a, 0xbe, 0xc2, 0xb7, 0x86, 0xbd,
  0xbc, 0x35, 0x3a, 0x3e, 0x94, 0x2e, 0x03, 0x3e, 0x29, 0x82, 0xec, 0x3d,
  0x9b, 0x1b, 0x92, 0xbe, 0xbf, 0x09, 0x96, 0xbe, 0xbe, 0xc4, 0xa6, 0x3d,
  0x54, 0x33, 0x5b, 0xbe, 0x6f, 0x38, 0x81, 0xbd, 0xa3, 0x9c, 0xbb, 0x3d,
  0x4a, 0x87, 0xbd, 0x3a, 0x14, 0x16, 0xeb, 0x3c, 0xc5, 0x81, 0x9f, 0x3d,
  0x2b, 0xe0, 0xd5, 0xbd, 0xc2, 0x99, 0xa2, 0x3c, 0x62, 0x66, 0x24, 0x3e,
  0xcf, 0xee, 0x85, 0xbe, 0x44, 0x49, 0x81, 0xbd, 0xaf, 0x41, 0xdd, 0x3d,
  0x0b, 0xc6, 0x42, 0xbe, 0xbf, 0x0f, 0x99, 0xbd, 0xa1, 0xb6, 0x2a, 0xbc,
  0x63, 0xcd, 0x25, 0x3e, 0x1a, 0xd5, 0xe9, 0xbd, 0xbb, 0xdc, 0xe0, 0xbd,
  0xcd, 0xf7, 0x24, 0x3d, 0x84, 0x16, 0x08, 0xbe, 0x21, 0x92, 0x7e, 0xbe,
  0x0b, 0xed, 0xcb, 0xbd, 0x6f, 0xf6, 0x81, 0x3d, 0xf5, 0xef, 0x40, 0xbd,
  0x15, 0x45, 0x54, 0x3e, 0x6b, 0x7b, 0x6e, 0xbd, 0xa8, 0x20, 0x5b, 0xbd,
  0x3a, 0x8a, 0x92, 0x3d, 0x03, 0x80, 0x1b, 0xbe, 0xb5, 0x24, 0xce, 0xbd,
  0x08, 0x51, 0xb2, 0x3d, 0xff, 0x10, 0x29, 0xbe, 0x57, 0x25, 0xe1, 0xbd,
  0x25, 0xea, 0x5d, 0xbe, 0x84, 0x2a, 0xf2, 0xbc, 0x97, 0x49, 0xd0, 0x3d,
  0x74, 0xc9, 0x43, 0xbe, 0xcf, 0x5a, 0x49, 0xbe, 0xe3, 0x90, 0x2b, 0xbe,
  0xc8, 0x42, 0xdd, 0xbd, 0x0f, 0x91, 0x22, 0x3e, 0xb2, 0x82, 0xb3, 0xbd,
  0x52, 0xad, 0x79, 0x3d, 0x6c, 0xfc, 0x7c, 0x3d, 0x74, 0xc5, 0xed, 0xbd,
  0x00, 0x2f, 0x0e, 0xbe, 0xb8, 0xff, 0xa1, 0xbd, 0xa6, 0xdd, 0x1a, 0x3e,
  0xca, 0xed, 0x51, 0xbe, 0x39, 0x96, 0xa1, 0x3d, 0x29, 0xa5, 0x18, 0x3e,
  0x8e, 0x27, 0x83, 0xbe, 0xfe, 0x31, 0xaa, 0xbb, 0xe5, 0x61, 0x17, 0x3e,
  0x5a, 0xc6, 0x07, 0xbe, 0x2e, 0x77, 0x64, 0xbe, 0xb9, 0xa6, 0x16, 0xbe,
  0xff, 0xfc, 0x81, 0xbd, 0x59, 0x84, 0x0c, 0xbe, 0x69, 0xec, 0x78, 0x3d,
  0x58, 0x9f, 0x18, 0x3e, 0x31, 0x57, 0x83, 0xbe, 0x97, 0x87, 0xf0, 0xbb,
  0x15, 0xe5, 0xcd, 0x3d, 0xaa, 0x52, 0xe9, 0xbc, 0xe8, 0xd9, 0x72, 0xbe,
  0xc9, 0x47, 0xe2, 0x3d, 0xde, 0x23, 0x28, 0xbe, 0xc3, 0x2f, 0x88, 0xbd,
  0x42, 0x05, 0x0c, 0x3e, 0x1b, 0x21, 0x2a, 0xbe, 0x81, 0xf9, 0xee, 0x3c,
  0xaf, 0xd5, 0x6c, 0x3d, 0x78, 0x04, 0x67, 0xbd, 0xcb, 0xf7, 0x02, 0xbd,
  0x6b, 0x20, 0x01, 0xbd, 0xb8, 0xec, 0x33, 0x3c, 0x7e, 0x29, 0x23, 0xbe,
  0xa5, 0xee, 0x1e, 0xbe, 0xc2, 0x5b, 0xfd, 0x3d, 0xf4, 0x53, 0x55, 0xbe,
  0x93, 0x7d, 0x2a, 0xbe, 0x77, 0x01, 0x03, 0x3e, 0x84, 0xcb, 0x7e, 0x3d,
  0xdc, 0x1a, 0xe1, 0xbd, 0x34, 0x10, 0xd6, 0x3c, 0xdc, 0x29, 0x0c, 0xbe,
  0x05, 0xc8, 0x38, 0x3d, 0x1a, 0x77, 0x4a, 0x3c, 0x1c, 0x64, 0x31, 0xbd,
  0xd4, 0x21, 0x50, 0xbd, 0x22, 0x35, 0x32, 0xbc, 0xcd, 0x47, 0xac, 0x3d,
  0xfb, 0x85, 0x03, 0xbe, 0xad, 0xec, 0x40, 0xbe, 0xa0, 0xc8, 0x8c, 0x3d,
  0x63, 0xee, 0x0f, 0xbe, 0x83, 0x94, 0x05, 0x3e, 0xbf, 0x5a, 0xcb, 0xbd,
  0xe5, 0x98, 0x33, 0xbd, 0x47, 0x0b, 0x6a, 0xbd, 0x92, 0xc7, 0xa2, 0x3d,
  0x18, 0x00, 0x40, 0x3f, 0x5f, 0x27, 0x86, 0x3d, 0x6f, 0x81, 0x13, 0x3e,
  0xb5, 0x4a, 0x62, 0xbd, 0x9a, 0xc8, 0x0e, 0x3e, 0xf3, 0x9b, 0x0f, 0x3e,
  0x64, 0x96, 0xea, 0xbd, 0x10, 0x17, 0xd5, 0xbd, 0x29, 0xe7, 0x5e, 0xbe,
  0x90, 0x88, 0xcb, 0x3d, 0xab, 0x1f, 0x80, 0xbd, 0x4f, 0xe6, 0x25, 0xbe,
  0x10, 0x69, 0x4f, 0xbe, 0xa4, 0x39, 0x8f, 0x3d, 0xbf, 0x0a, 0xc3, 0x3d,
  0xc9, 0x30, 0xc5, 0x3d, 0xd2, 0x9b, 0xdb, 0x3f, 0xb5, 0x17, 0xc8, 0xbd,
  0x0b, 0x4f, 0x17, 0x3d, 0xd5, 0x7b, 0xf1, 0x3d, 0x28, 0x27, 0x26, 0xbd,
  0x6f, 0x98, 0xc2, 0xbc, 0x74, 0xad, 0x07, 0xbd, 0x72, 0x18, 0x4d, 0xbe,
  0xb2, 0x66, 0xe9, 0xbd, 0x2c, 0xd7, 0x86, 0xbc, 0xd4, 0xf3, 0x75, 0xbe,
  0xd6, 0xef, 0x81, 0xbd, 0x74, 0x0a, 0xc8, 0x3d, 0x9c, 0xf8, 0x2c, 0xbe,
  0x2c, 0xe1, 0xee, 0x3d, 0x57, 0xec, 0x41, 0xbe, 0x3f, 0x68, 0xe7, 0x3f,
  0x1d, 0x3a, 0x07, 0x3d, 0xd2, 0xd6, 0x47, 0x3e, 0xb6, 0x31, 0x22, 0xbe,
  0x69, 0xab, 0xae, 0x3d, 0xb1, 0x36, 0xa1, 0xbc, 0xc2, 0xcf, 0xa7, 0xbc,
  0x23, 0x5d, 0xf7, 0xbd, 0xd7, 0xbd, 0x99, 0x3d, 0x98, 0x12, 0x48, 0xbe,
  0xe9, 0x3f, 0xa7, 0x3d, 0x04, 0x51, 0x2e, 0xbe, 0x9e, 0xff, 0x4c, 0x3e,
  0x4f, 0x60, 0xe3, 0xbd, 0x90, 0x4d, 0x23, 0x3e, 0x0c, 0xc8, 0xc2, 0xbd,
  0xb3, 0x30, 0xd9, 0x3f, 0xe1, 0xce, 0x24, 0xbe, 0x47, 0xfe, 0x40, 0x3d,
  0xaf, 0xe7, 0xef, 0x3c, 0xb1, 0x02, 0x27, 0xbe, 0x7a, 0x2b, 0x2c, 0xbe,
  0x92, 0xbd, 0x54, 0xbe, 0xef, 0x8a, 0x65, 0xbe, 0xce, 0x6f, 0x48, 0xbe,
  0xa0, 0x80, 0x1d, 0xbe, 0xc4, 0x70, 0xc9, 0xbd, 0x5e, 0xfe, 0xe5, 0xbb,
  0xee, 0x90, 0x46, 0xbe, 0xa4, 0x49, 0x88, 0xbe, 0x54, 0x9d, 0x51, 0xbd,
  0x9c, 0x17, 0xc9, 0xbd, 0x51, 0xe5, 0xbb, 0x3f, 0x8f, 0x8a, 0x28, 0xbd,
  0x58, 0x4f, 0x27, 0x3e, 0x9c, 0xb4, 0x68, 0xbe, 0x35, 0x33, 0x1d, 0x3e,
  0x06, 0x04, 0x40, 0x3c, 0x6d, 0xe0, 0xcb, 0xbd, 0xf4, 0x86, 0x9c, 0xbd,
  0x2b, 0x7e, 0x88, 0xbe, 0x11, 0x95, 0x49, 0xbe, 0xaa, 0xed, 0x77, 0x3c,
  0x8b, 0x47, 0x79, 0xbe, 0x2d, 0xb2, 0x12, 0xbe, 0xea, 0xad, 0x9f, 0x3d,
  0x74, 0x05, 0x39, 0xbe, 0xf8, 0x08, 0xa3, 0x3c, 0x7a, 0xc6, 0xa5, 0x3f,
  0x8b, 0xbd, 0x92, 0xbd, 0xec, 0x1f, 0x8f, 0x3e, 0xb6, 0x51, 0xff, 0x3d,
  0xd6, 0x57, 0x37, 0x3e, 0x0a, 0x2e, 0x8e, 0x3e, 0xf0, 0x1d, 0x28, 0xbc,
  0x41, 0xec, 0xa8, 0xbc, 0xe9, 0x8e, 0xb4, 0x3d, 0x44, 0x28, 0x5f, 0xbd,
  0x33, 0x69, 0x20, 0xbd, 0x4f, 0xe5, 0x73, 0xbd, 0x3a, 0xe8, 0x4b, 0xbe,
  0xd8, 0x9f, 0x8c, 0xbe, 0x83, 0xcc, 0x57, 0xbd, 0x27, 0x49, 0x69, 0x3d,
  0xf1, 0x1a, 0xe5, 0x3e, 0xbe, 0xc0, 0x51, 0xbd, 0xeb, 0xec, 0x1e, 0x3d,
  0xc6, 0xbc, 0xa0, 0xbc, 0x90, 0xf9, 0xc0, 0x3d, 0x40, 0xfa, 0x55, 0xbe,
  0xe3, 0x23, 0x2b, 0xbe, 0xac, 0x6d, 0xcd, 0xbc, 0x4a, 0x4d, 0x6a, 0xbe,
  0x9a, 0x48, 0x03, 0xbd, 0x77, 0xa8, 0xcf, 0x3d, 0x7f, 0xe7, 0x88, 0xbd,
  0xcd, 0xee, 0x34, 0xbe, 0x57, 0x55, 0x23, 0xbe, 0x1b, 0x27, 0x54, 0xbe,
  0xf3, 0xf4, 0xd2, 0x3d, 0xea, 0x6b, 0x89, 0xbc, 0xcf, 0x82, 0x00, 0xbd,
  0xae, 0xa5, 0xb8, 0xbd, 0x94, 0xc2, 0x47, 0xbe, 0x5d, 0x3e, 0x82, 0xbd,
  0xdf, 0x4e, 0x1e, 0x3e, 0x05, 0x60, 0x80, 0xbe, 0xc0, 0x9f, 0x69, 0xbd,
  0x95, 0xaa, 0x72, 0xbe, 0xf9, 0x1c, 0x55, 0xbe, 0x0a, 0x92, 0x3e, 0xbc,
  0x47, 0xe1, 0x2e, 0xbe, 0x64, 0x32, 0x1e, 0xbe, 0x46, 0x33, 0x4e, 0xbe,
  0x7b, 0x2f, 0x87, 0x3d, 0x2f, 0xb3, 0xd3, 0xbc, 0x62, 0x57, 0x57, 0x3d,
  0x2f, 0xa1, 0x19, 0x3d, 0x14, 0x00, 0x44, 0xbe, 0xa1, 0x78, 0x9c, 0x3d,
  0x8d, 0x73, 0xc6, 0x3d, 0xa6, 0x71, 0xe6, 0x3d, 0xea, 0x7f, 0x0f, 0xbe,
  0x8b, 0x8d, 0x0b, 0xbd, 0xb7, 0x16, 0x92, 0xbe, 0x37, 0xaf, 0x1e, 0x3e,
  0x5d, 0xa8, 0x29, 0x3e, 0x87, 0x90, 0x7b, 0xbe, 0xf7, 0x30, 0x19, 0x3e,
  0x7d, 0xb4, 0x08, 0xbe, 0x80, 0x05, 0x10, 0xbe, 0xaa, 0xe0, 0x63, 0xbe,
  0x4d, 0x7a, 0x4a, 0x3d, 0x0f, 0xad, 0xc7, 0xbd, 0x08, 0x34, 0xb0, 0x3d,
  0xad, 0x59, 0x01, 0x3d, 0x4b, 0x84, 0x8c, 0x3d, 0xd5, 0x5b, 0xed, 0xbc,
  0x5f, 0xdd, 0x94, 0x3d, 0x18, 0xe6, 0x27, 0xbc, 0x4a, 0x19, 0x77, 0xbe,
  0xce, 0x31, 0xfe, 0x3c, 0x3a, 0xe4, 0x27, 0xbe, 0x14, 0xb2, 0x72, 0xbe,
  0xac, 0xb5, 0x32, 0xbe, 0xfb, 0x41, 0x02, 0x3e, 0xef, 0x0f, 0x8e, 0xbd,
  0x56, 0x96, 0x24, 0xbe, 0x22, 0x13, 0xbe, 0xbc, 0x20, 0x33, 0x4d, 0xbe,
  0x13, 0x6a, 0xb8, 0x3d, 0xaa, 0xb2, 0x2f, 0x3d, 0x66, 0x28, 0x13, 0xbe,
  0x21, 0xa3, 0x2c, 0x3e, 0x87, 0x86, 0xcb, 0x3c, 0x44, 0xce, 0x0b, 0xbe,
  0x33, 0xed, 0xcd, 0xbd, 0x37, 0x77, 0xa6, 0xbc, 0xf9, 0x15, 0x64, 0xbe,
  0x57, 0x2d, 0x30, 0xbe, 0xee, 0x42, 0x39, 0x3e, 0x16, 0xb5, 0x2a, 0xbe,
  0x08, 0xe3, 0x2c, 0xbe, 0x23, 0x21, 0x12, 0x3e, 0xf1, 0x4d, 0x0e, 0xbd,
  0x98, 0xc5, 0x1a, 0x3e, 0xeb, 0x91, 0xdf, 0xbd, 0x73, 0x27, 0xd9, 0x3d,
  0x2c, 0x8a, 0x3b, 0xbe, 0xb2, 0x5b, 0x0e, 0x3e, 0x03, 0xb3, 0x4a, 0x3a,
  0x8d, 0xf5, 0x79, 0xbe, 0xff, 0xae, 0xac, 0x3d, 0xb9, 0xf4, 0x25, 0xbe,
  0x64, 0x3b, 0xe6, 0xbd, 0x5c, 0x0d, 0x6b, 0xbe, 0xd0, 0x02, 0x57, 0x3e,
  0x80, 0xb7, 0xdc, 0xbd, 0x6f, 0x8b, 0x3e, 0xbb, 0x77, 0x0a, 0x27, 0xbe,
  0x98, 0x43, 0xbf, 0xbd, 0x87, 0xe5, 0x75, 0xbe, 0x4c, 0x18, 0x5b, 0x3d,
  0xe8, 0x02, 0x10, 0xbd, 0x5c, 0xa2, 0x3d, 0xbe, 0x04, 0xf9, 0x2d, 0x3c,
  0x0b, 0x04, 0x47, 0x3d, 0x92, 0x65, 0x1d, 0xbe, 0x06, 0x89, 0xb0, 0xbd,
  0x71, 0x44, 0x54, 0x3e, 0xb2, 0x36, 0x76, 0xbe, 0xe9, 0xfe, 0x8c, 0xbe,
  0xc2, 0xf9, 0x0b, 0x3e, 0xf7, 0x31, 0x00, 0xbd, 0x38, 0x41, 0xad, 0x3d,
  0x33, 0xfd, 0xd3, 0xbd, 0x5e, 0xa3, 0xa0, 0xbd, 0x01, 0x12, 0x02, 0xbe,
  0xba, 0xf4, 0x9a, 0x3c, 0x6b, 0x4b, 0x64, 0xbe, 0x11, 0x4e, 0x5e, 0x3d,
  0x29, 0xcc, 0x0c, 0xbe, 0xdb, 0x45, 0x01, 0xbe, 0x91, 0x47, 0x41, 0xbe,
  0xc3, 0x0d, 0xa5, 0xbd, 0x09, 0x9d, 0xdc, 0x3c, 0x48, 0xc0, 0x18, 0xbd,
  0x36, 0x42, 0x69, 0xbe, 0x3c, 0xa1, 0x9b, 0x3c, 0xad, 0x25, 0x80, 0x3d,
  0xb0, 0x43, 0xbe, 0x3e, 0xe7, 0x6c, 0xb4, 0xbe, 0x6c, 0x61, 0x03, 0x40,
  0x38, 0xbf, 0x69, 0xbe, 0x82, 0x1e, 0x47, 0x3e, 0xad, 0xdf, 0x70, 0xbe,
  0x83, 0x4f, 0xb0, 0xbe, 0x0e, 0x31, 0xf1, 0x3e, 0xcb, 0xd8, 0xb7, 0xbe,
  0xde, 0x06, 0xf3, 0xbb, 0x26, 0xb9, 0xa2, 0x3d, 0x08, 0x94, 0x58, 0xbe,
  0x64, 0x14, 0x2b, 0x3e, 0x1a, 0x90, 0x30, 0xbf, 0xc7, 0x40, 0x8a, 0xbe,
  0x16, 0xd2, 0xdd, 0x3e, 0x5e, 0x23, 0x19, 0x3e, 0x8c, 0xde, 0x39, 0xbe,
  0x9a, 0x13, 0x2b, 0x40, 0xd6, 0x1a, 0xe1, 0xbc, 0xda, 0x59, 0x71, 0x3e,
  0xb8, 0xd2, 0x0f, 0x3f, 0x71, 0xab, 0x36, 0x3e, 0x5b, 0x21, 0x60, 0xbd,
  0x47, 0x8d, 0x23, 0xbe, 0x20, 0xe7, 0x2d, 0x3d, 0x1a, 0xdb, 0x9e, 0x3d,
  0x33, 0x5d, 0xd6, 0x3d, 0xd3, 0xc1, 0x28, 0x3e, 0x1f, 0x6e, 0xf2, 0xbd,
  0x1d, 0x18, 0xd7, 0x3e, 0xbe, 0x45, 0x9f, 0x39, 0xc4, 0x11, 0xc5, 0xbb,
  0x4f, 0x8a, 0xfe, 0xb8, 0xff, 0x65, 0x12, 0x40, 0xbb, 0xb4, 0xf1, 0xbd,
  0x97, 0xb5, 0x11, 0x3e, 0xd9, 0xda, 0xd1, 0x3e, 0xcf, 0x67, 0x6f, 0x3e,
  0x53, 0x34, 0xaa, 0xbe, 0x2a, 0x94, 0x0f, 0xbd, 0x50, 0x51, 0x4b, 0xbd,
  0x96, 0xc3, 0x25, 0xbe, 0x88, 0xfb, 0x42, 0x3d, 0x35, 0x8b, 0x5b, 0xbe,
  0x96, 0xfe, 0x9d, 0xbd, 0x3c, 0x38, 0xa4, 0x3e, 0x04, 0xff, 0xae, 0xbe,
  0xed, 0xe8, 0xa6, 0xbd, 0x23, 0x1f, 0x97, 0xbe, 0x04, 0x17, 0xc0, 0x3f,
  0x1f, 0xe4, 0x7f, 0xbe, 0xfe, 0xfa, 0xd9, 0x3e, 0x3c, 0x61, 0x08, 0x3e,
  0x17, 0x91, 0x4f, 0x3d, 0x8e, 0xe4, 0x68, 0xbe, 0x5e, 0x92, 0xb3, 0xbd,
  0xb4, 0xc3, 0x46, 0xbd, 0x2c, 0xe7, 0x0e, 0xbe, 0x98, 0x67, 0xdc, 0x3d,
  0x0e, 0x7a, 0x0d, 0xbe, 0x26, 0xfa, 0x6f, 0xbe, 0xf3, 0xa0, 0xba, 0x3c,
  0x4a, 0x9f, 0xd8, 0xbe, 0x86, 0xae, 0xcc, 0x3d, 0x3d, 0x6c, 0x48, 0xbe,
  0xcc, 0xf2, 0x15, 0x40, 0xec, 0x47, 0x0f, 0xbc, 0x67, 0x3b, 0x0c, 0x3f,
  0x1e, 0x1d, 0xce, 0xbd, 0xf1, 0xb5, 0xaf, 0x3e, 0x2a, 0xb8, 0x07, 0xbe,
  0xd0, 0xc1, 0xc8, 0xbd, 0x3d, 0x34, 0xd5, 0xbc, 0x8a, 0x1f, 0x59, 0xbe,
  0xb7, 0xeb, 0x07, 0x3d, 0xdd, 0x6c, 0xac, 0xbe, 0xff, 0x08, 0x5c, 0xbe,
  0x5b, 0x5f, 0xec, 0xbc, 0x06, 0x58, 0x6c, 0xbe, 0xd7, 0x91, 0xc3, 0x3e,
  0x86, 0xab, 0x8a, 0xbe, 0x4c, 0xf8, 0x13, 0x40, 0x9a, 0x72, 0x49, 0xbe,
  0xac, 0xc9, 0x11, 0x3f, 0x16, 0xa6, 0xe6, 0x3d, 0x2a, 0xa1, 0x28, 0xbc,
  0xaa, 0x23, 0x93, 0x3e, 0x98, 0x14, 0x14, 0xbc, 0xde, 0x07, 0x9b, 0x3b,
  0xe0, 0x9b, 0xb2, 0x3d, 0xd6, 0xba, 0x81, 0xbc, 0x01, 0x8f, 0xb2, 0x3c,
  0xea, 0xd2, 0x71, 0xbe, 0xd3, 0xe3, 0x01, 0xbe, 0x33, 0x5b, 0x5b, 0x3c,
  0x95, 0x99, 0xf9, 0x3c, 0x1f, 0x6e, 0xb9, 0xbe, 0x62, 0x79, 0x24, 0x3f,
  0x45, 0x3e, 0x9a, 0xbe, 0xf0, 0x96, 0x05, 0xbd, 0x9a, 0x84, 0x9c, 0x3d,
  0xe8, 0xd3, 0x8b, 0x3e, 0x1f, 0x16, 0xb0, 0x3e, 0xbe, 0x52, 0x3b, 0xbd,
  0xb5, 0x71, 0x96, 0x3c, 0x71, 0x93, 0x6e, 0x3e, 0x35, 0x5e, 0x86, 0xbc,
  0xe9, 0xe9, 0x3d, 0x3d, 0x0b, 0x34, 0x6b, 0xbb, 0x2e, 0xed, 0xa5, 0x3c,
  0x51, 0xa1, 0xc4, 0x3e, 0x6e, 0x61, 0x3f, 0x3d, 0xcb, 0x58, 0x7f, 0x3e,
  0x11, 0x2f, 0x13, 0xbe, 0xd8, 0xd9, 0x20, 0x3e, 0x0b, 0xc8, 0xac, 0x3c,
  0x19, 0x95, 0xfb, 0x3d, 0xf2, 0xe1, 0xb4, 0x3c, 0x44, 0xbb, 0x9e, 0xbc,
  0x3b, 0x35, 0xb3, 0x3d, 0xe8, 0x30, 0x65, 0xbe, 0x8a, 0xa3, 0x2b, 0xbc,
  0x4a, 0xb1, 0xb7, 0x3d, 0xe5, 0xb8, 0xf4, 0xbd, 0x6c, 0xf8, 0x06, 0xbc,
  0x50, 0x95, 0x6e, 0x3e, 0x9e, 0xef, 0xe5, 0x3d, 0xf6, 0xbf, 0x4a, 0x3e,
  0xe4, 0xe7, 0x33, 0x3e, 0xc1, 0x7c, 0xd3, 0x3c, 0x45, 0x1a, 0xf1, 0x3d,
  0xa0, 0xa4, 0x59, 0x3c, 0xf9, 0x4c, 0x20, 0xbe, 0xd8, 0x21, 0xa5, 0x3d,
  0x58, 0xe7, 0x95, 0x3c, 0xc1, 0x70, 0x4c, 0x3c, 0x6d, 0x73, 0x81, 0xbe,
  0xa7, 0xc6, 0xc2, 0x3d, 0x9e, 0x34, 0x78, 0x3d, 0x19, 0x76, 0xe8, 0xbd,
  0xc9, 0xd1, 0x22, 0x3e, 0x23, 0xc9, 0x98, 0xbc, 0x00, 0x20, 0xb7, 0x3d,
  0x93, 0x1e, 0x2e, 0x3d, 0xe5, 0xaf, 0x19, 0x3e, 0x54, 0x8f, 0x00, 0xbe,
  0x1a, 0x00, 0x15, 0x3e, 0x90, 0x9f, 0x03, 0x3e, 0x7e, 0xf0, 0x62, 0x3a,
  0xb9, 0x65, 0x4d, 0x3e, 0xcc, 0x5d, 0xe2, 0x3e, 0x63, 0x4e, 0xe0, 0xba,
  0x14, 0x0d, 0x41, 0xbd, 0xde, 0x4d, 0x9b, 0x3d, 0xc2, 0x7e, 0x0d, 0x3e,
  0xe4, 0xca, 0xa1, 0x3d, 0x92, 0xee, 0xca, 0x3e, 0x12, 0xc4, 0x31, 0xbc,
  0x11, 0x67, 0xe8, 0x3d, 0xb7, 0xf0, 0x8d, 0xbd, 0x16, 0x5c, 0xd4, 0x3e,
  0xd6, 0xdc, 0xb4, 0xbd, 0xea, 0x49, 0x81, 0xbd, 0x41, 0xd5, 0x85, 0x3e,
  0x43, 0x7c, 0x20, 0x3e, 0x4b, 0xd7, 0x0c, 0x3e, 0x64, 0xcc, 0x96, 0x3e,
  0x0f, 0x40, 0xb2, 0x3c, 0x0d, 0x73, 0xae, 0xbe, 0x4b, 0x99, 0x86, 0x3e,
  0x75, 0x0a, 0x96, 0x3d, 0x4b, 0xce, 0x50, 0x3e, 0xc4, 0x0c, 0x2b, 0x3e,
  0xb6, 0x2d, 0x43, 0xbd, 0x8e, 0x17, 0x9c, 0xbc, 0x68, 0xe0, 0xc7, 0xbb,
  0xba, 0x26, 0x95, 0x3d, 0x6b, 0xaf, 0x55, 0xb9, 0x9a, 0xd3, 0x16, 0x3e,
  0xe3, 0x71, 0x80, 0x3e, 0x6e, 0xa2, 0x33, 0xbe, 0xf5, 0xb1, 0xe4, 0xbd,
  0xc7, 0x29, 0xdc, 0x3c, 0x5c, 0xa3, 0xee, 0x3d, 0x41, 0x90, 0x02, 0xbd,
  0xc1, 0x25, 0xe5, 0xbd, 0xd4, 0x29, 0x87, 0x3e, 0x0a, 0x92, 0x1d, 0xbe,
  0x50, 0x57, 0x69, 0x3e, 0x6d, 0xff, 0x8a, 0x3e, 0x94, 0x6d, 0xee, 0xbc,
  0x84, 0xa9, 0x64, 0xbe, 0xdc, 0x9a, 0xbf, 0x3e, 0x2f, 0xb7, 0x89, 0xbd,
  0x13, 0x57, 0xd6, 0xbd, 0x1f, 0x15, 0xc6, 0x3d, 0xac, 0xf1, 0x22, 0xbe,
  0x2c, 0x36, 0xc6, 0xbd, 0x62, 0x21, 0xfd, 0xbd, 0x45, 0x1e, 0x8a, 0x3e,
  0x56, 0x49, 0xdb, 0xbd, 0x7b, 0xa8, 0xc1, 0xbc, 0x8a, 0xdf, 0x21, 0x3e,
  0x38, 0x91, 0x59, 0x3b, 0x64, 0xf2, 0x4f, 0x3e, 0x75, 0xf3, 0xaf, 0xbd,
  0xae, 0x0d, 0xf9, 0xbb, 0x61, 0x24, 0xc2, 0x3c, 0x35, 0xd3, 0x85, 0x3e,
  0xd9, 0xb7, 0xfb, 0xbc, 0xb3, 0xa9, 0x46, 0x3e, 0xd2, 0x67, 0xc6, 0x3c,
  0x49, 0x18, 0x3a, 0xbe, 0xe5, 0x2c, 0x99, 0x3b, 0x6e, 0x68, 0x71, 0x3e,
  0xa8, 0x9f, 0xb9, 0x3d, 0x77, 0x8e, 0xc1, 0xbe, 0xb2, 0xef, 0x39, 0xbe,
  0x03, 0x4f, 0x6d, 0x3d, 0xc1, 0x8c, 0x99, 0xbd, 0x25, 0x63, 0x9d, 0x3d,
  0xb2, 0x05, 0xbd, 0xbd, 0xec, 0xf4, 0xe8, 0xbd, 0x91, 0x42, 0xb3, 0x3b,
  0x53, 0xf4, 0xab, 0x3e, 0xac, 0x93, 0x4b, 0xbc, 0x8b, 0x90, 0x9f, 0x3e,
  0x6e, 0xd9, 0x91, 0x3d, 0x97, 0x12, 0x79, 0x3e, 0x07, 0x31, 0x78, 0x3d,
  0x61, 0x14, 0xd1, 0x3c, 0x1b, 0x23, 0x41, 0x3e, 0xc2, 0xd9, 0xa8, 0xbe,
  0xc9, 0xc0, 0x40, 0xbe, 0x65, 0x46, 0x84, 0x3e, 0xc5, 0x12, 0xa6, 0xbe,
  0xcb, 0xbf, 0xee, 0x3e, 0x21, 0x5a, 0x93, 0x3e, 0x3f, 0x68, 0x42, 0xbe,
  0xe6, 0xb4, 0x3b, 0x3d, 0x55, 0x5f, 0x25, 0x3e, 0xb7, 0x07, 0x3f, 0xbe,
  0x92, 0x74, 0x3d, 0x3e, 0x5e, 0x68, 0xa9, 0x3d, 0x4b, 0xe0, 0xfd, 0xbd,
  0xe0, 0xbb, 0xf8, 0xbb, 0x49, 0xee, 0xf2, 0x3d, 0xc2, 0x77, 0x41, 0x3e,
  0xdc, 0xea, 0x88, 0xbe, 0x10, 0x79, 0x8e, 0x3d, 0x01, 0x99, 0x00, 0x3f,
  0x61, 0x03, 0xa0, 0xbc, 0xe7, 0xae, 0x00, 0xbe, 0x97, 0x6b, 0xa8, 0x3d,
  0x2e, 0x5f, 0x66, 0x3d, 0xca, 0x1a, 0x69, 0x3e, 0xd3, 0x95, 0x49, 0x3e,
  0xaa, 0x1b, 0x8e, 0xbd, 0x8b, 0xe3, 0x8c, 0x3c, 0x69, 0xdd, 0xb9, 0xbd,
  0x61, 0xa2, 0x8d, 0xbc, 0xe8, 0xf3, 0xc7, 0xbd, 0x8e, 0xc3, 0xdd, 0x3e,
  0x21, 0x41, 0x18, 0x3e, 0x1a, 0x23, 0xbe, 0xbe, 0x68, 0x50, 0x2b, 0x3c,
  0xf8, 0xc1, 0x90, 0x3e, 0x47, 0x96, 0xba, 0x3d, 0xfc, 0x0f, 0x27, 0xbc,
  0xbd, 0x67, 0xbb, 0x3e, 0x9f, 0x3c, 0x69, 0x3e, 0x8b, 0x18, 0x7f, 0x3e,
  0x94, 0x3d, 0x89, 0x3e, 0x62, 0x70, 0xc0, 0xbc, 0x08, 0x7a, 0x2f, 0x3d,
  0x3e, 0x08, 0xfe, 0xbd, 0x85, 0x2a, 0xb3, 0x3d, 0x60, 0x2c, 0x38, 0xbd,
  0x99, 0xc4, 0x3f, 0x3d, 0xa1, 0x5e, 0x68, 0x3e, 0x3d, 0x61, 0x23, 0xbe,
  0xcf, 0x96, 0x23, 0x3c, 0x98, 0x55, 0x0d, 0x3e, 0xf1, 0x9f, 0xdf, 0x3d,
  0xb1, 0xd6, 0x2a, 0xbc, 0xb5, 0x59, 0xaa, 0x3e, 0x86, 0x47, 0x58, 0x3c,
  0x29, 0xdd, 0x0c, 0xbe, 0x42, 0xa1, 0x87, 0x3e, 0x99, 0x13, 0xa1, 0x3d,
  0xd6, 0x6a, 0xce, 0x3d, 0x54, 0x0d, 0xa2, 0x3d, 0x8a, 0x1e, 0xd1, 0x3c,
  0x73, 0xf0, 0x53, 0xbd, 0xb7, 0x9e, 0x36, 0x3e, 0x59, 0x14, 0x57, 0x3d,
  0xd4, 0x33, 0x93, 0xbe, 0xfd, 0x76, 0xea, 0x3d, 0xe7, 0x69, 0x05, 0x3f,
  0x26, 0x7a, 0xc9, 0xbc, 0x48, 0x8e, 0xb4, 0x3e, 0xf8, 0x7f, 0x41, 0x3e,
  0xdf, 0x0d, 0xa4, 0xbc, 0x44, 0xa9, 0x7d, 0xbe, 0x73, 0x44, 0x84, 0x3e,
  0x9c, 0x85, 0x1b, 0xbe, 0x87, 0xd9, 0xbc, 0x3e, 0x12, 0xb8, 0x39, 0x3e,
  0x5b, 0x72, 0xe6, 0xbd, 0x06, 0x08, 0x17, 0xbb, 0x4a, 0x33, 0x24, 0xbe,
  0x2f, 0x31, 0x94, 0x3d, 0x4f, 0x76, 0x63, 0xbe, 0x9b, 0xc6, 0x26, 0xbe,
  0x3c, 0xcd, 0xca, 0x3e, 0xc9, 0xb5, 0x0b, 0xbe, 0x22, 0x3a, 0xdf, 0x3d,
  0x4a, 0xab, 0x60, 0x3d, 0xf6, 0x97, 0xb9, 0x3c, 0x9c, 0x11, 0xac, 0xbd,
  0xf5, 0xe7, 0xad, 0x3e, 0x2c, 0xb7, 0x9c, 0x3d, 0xc1, 0xf1, 0x95, 0xbb,
  0x0f, 0x83, 0xb3, 0x3d, 0x61, 0xaf, 0x33, 0x3c, 0x00, 0xb7, 0x8f, 0xbc,
  0x3e, 0x3f, 0xfe, 0x3d, 0x77, 0x16, 0x23, 0x3e, 0x59, 0x60, 0x03, 0xbf,
  0x07, 0x97, 0x57, 0xbe, 0x1d, 0xfc, 0xba, 0x3e, 0x8d, 0x69, 0x18, 0xbe,
  0x91, 0x84, 0x95, 0x3e, 0xfc, 0xf8, 0x6f, 0x3d, 0xea, 0x6b, 0x0d, 0x3b,
  0x58, 0xc1, 0x2a, 0xbd, 0x07, 0x75, 0xa9, 0xbd, 0xd5, 0x3f, 0xf4, 0x3f,
  0x1f, 0xf9, 0x1c, 0x3b, 0x08, 0x85, 0x9c, 0x3e, 0xdf, 0x12, 0xb4, 0xbb,
  0x82, 0xbb, 0x2a, 0xbc, 0xa3, 0x09, 0xa7, 0xbe, 0x27, 0x11, 0x25, 0xbe,
  0xb4, 0x7e, 0xa7, 0xbd, 0xc6, 0xd4, 0x73, 0xbe, 0xf4, 0x6a, 0x08, 0x3d,
  0xbd, 0xc8, 0xe5, 0xbd, 0xc9, 0x06, 0x57, 0xbd, 0x5b, 0x99, 0x22, 0x3d,
  0xee, 0x8d, 0x97, 0xbe, 0x9b, 0x00, 0xcd, 0xbd, 0xf0, 0xb6, 0xaa, 0xbd,
  0x56, 0xe5, 0xe6, 0x3f, 0x74, 0xc9, 0x09, 0x3d, 0x42, 0xe5, 0x71, 0x3e,
  0xc1, 0x79, 0x58, 0xbe, 0xf4, 0xb4, 0x2f, 0x3e, 0xcf, 0xd7, 0x5f, 0x3e,
  0x22, 0x99, 0x32, 0xbd, 0xd8, 0x42, 0xfe, 0xbd, 0xb8, 0x27, 0x65, 0xbe,
  0x99, 0x4b, 0xa2, 0xbc, 0x99, 0x7d, 0x35, 0xbe, 0x9a, 0xa6, 0x2c, 0xbe,
  0x9f, 0x75, 0xab, 0xbe, 0x3b, 0x7b, 0x9a, 0xbe, 0xc2, 0x40, 0x6c, 0xbd,
  0xca, 0x00, 0x03, 0x3c, 0x41, 0xe6, 0xc7, 0x3f, 0xd5, 0x8f, 0x86, 0x3d,
  0xe0, 0x90, 0xd1, 0xbd, 0x10, 0xea, 0x67, 0xbe, 0x32, 0x7a, 0xd9, 0x3f,
  0xa5, 0x24, 0xb3, 0x3e, 0x73, 0x12, 0x0b, 0xbe, 0x61, 0xb4, 0xf7, 0xbc,
  0x2a, 0x37, 0x52, 0xbe, 0xe8, 0x88, 0x81, 0xbe, 0xfe, 0x21, 0x18, 0xbe,
  0x46, 0x3d, 0x8c, 0xbd, 0xb3, 0x74, 0x88, 0xbd, 0x5f, 0x9c, 0x67, 0xbe,
  0xff, 0xac, 0x81, 0xbe, 0xfa, 0x3c, 0x7b, 0xbe, 0x73, 0x67, 0xef, 0x3f,
  0x4e, 0xc0, 0x08, 0xbc, 0x01, 0x62, 0xd9, 0x3f, 0x95, 0x17, 0x84, 0xbe,
  0x57, 0x25, 0x9d, 0xbd, 0xce, 0x8a, 0x13, 0x3e, 0x47, 0xc6, 0x09, 0xbe,
  0x7f, 0x15, 0x09, 0xbd, 0xcb, 0xd3, 0x8e, 0xbe, 0x45, 0xd0, 0x69, 0xbe,
  0x8c, 0xc8, 0x44, 0xbe, 0x11, 0x1e, 0x59, 0xbd, 0x99, 0x59, 0x60, 0xbc,
  0xbe, 0xc5, 0xc8, 0xbe, 0xcf, 0xc7, 0x7d, 0x3e, 0xa4, 0xa3, 0x9a, 0xbe,
  0xc9, 0xf9, 0xfd, 0x3f, 0x6f, 0xfe, 0x28, 0xbe, 0xe4, 0x85, 0xa8, 0x3e,
  0xa7, 0x58, 0x2b, 0xbe, 0x9e, 0xa8, 0x27, 0x3e, 0xd1, 0x0d, 0x13, 0x3e,
  0x21, 0x06, 0xdb, 0xbe, 0x05, 0x6f, 0x09, 0xbe, 0x22, 0xc9, 0xe0, 0x3d,
  0x2f, 0x5b, 0x17, 0xbe, 0xe2, 0x26, 0x4f, 0xbd, 0x17, 0x80, 0x38, 0xbe,
  0xf5, 0xdb, 0x8e, 0xbe, 0x04, 0xb6, 0xb1, 0x3d, 0x10, 0x97, 0xbd, 0x3e,
  0xe2, 0x02, 0x9a, 0xbe, 0xc5, 0x90, 0xf0, 0x3f, 0xed, 0x7c, 0x75, 0xbe,
  0x0e, 0x90, 0xc2, 0x3d, 0x30, 0x77, 0x8f, 0xbe, 0x0a, 0xbc, 0xbc, 0xbd,
  0x84, 0xb6, 0x8f, 0x3e, 0x99, 0x6a, 0xe2, 0xbe, 0xbe, 0xe2, 0xf8, 0x3b,
  0x4b, 0xf1, 0x64, 0x3d, 0xed, 0xf6, 0x58, 0xbc, 0x0d, 0x90, 0x44, 0xbb,
  0x17, 0xf4, 0x8d, 0xbe, 0x06, 0xa6, 0xa3, 0xbe, 0x99, 0xd2, 0x7f, 0x3e,
  0xcc, 0x24, 0xc9, 0x3d, 0x9e, 0xf5, 0x3c, 0xbd, 0x95, 0x76, 0xad, 0x3f,
  0x9d, 0x6c, 0x6f, 0x3d, 0x76, 0x73, 0x00, 0x3e, 0xd2, 0xe9, 0x23, 0x3e,
  0x7d, 0x17, 0xb4, 0x3e, 0x37, 0x6b, 0x5d, 0x3d, 0x53, 0x6f, 0x47, 0x3c,
  0xf3, 0xc6, 0xca, 0x3c, 0xfa, 0xe2, 0xd1, 0x3e, 0x6d, 0x2d, 0xa3, 0xbe,
  0x30, 0x70, 0x0c, 0x3e, 0x46, 0xb5, 0x7f, 0xbe, 0x6d, 0x8a, 0x17, 0x3e,
  0x95, 0xb3, 0xc8, 0x3e, 0x4e, 0xfe, 0xff, 0xff, 0x10, 0x00, 0x00, 0x00,
  0x05, 0x00, 0x00, 0x00, 0x14, 0x00, 0x00, 0x00, 0x2c, 0x00, 0x00, 0x00,
  0x02, 0x00, 0x00, 0x00, 0x10, 0x00, 0x00, 0x00, 0x70, 0x00, 0x00, 0x00,
  0x17, 0x00, 0x00, 0x00, 0x73, 0x65, 0x71, 0x75, 0x65, 0x6e, 0x74, 0x69,
  0x61, 0x6c, 0x2f, 0x64, 0x65, 0x6e, 0x73, 0x65, 0x2f, 0x4d, 0x61, 0x74,
  0x4d, 0x75, 0x6c, 0x00, 0x3c, 0xfe, 0xff, 0xff, 0x32, 0xff, 0xff, 0xff,
  0x04, 0x00, 0x00, 0x00, 0x08, 0x00, 0x00, 0x00, 0xff, 0xff, 0xff, 0xff,
  0x70, 0x00, 0x00, 0x00, 0x00, 0x00, 0x0e, 0x00, 0x18, 0x00, 0x08, 0x00,
  0x07, 0x00, 0x0c, 0x00, 0x10, 0x00, 0x14, 0x00, 0x0e, 0x00, 0x00, 0x00,
  0x00, 0x00, 0x00, 0x02, 0x10, 0x00, 0x00, 0x00, 0x04, 0x00, 0x00, 0x00,
  0x10, 0x00, 0x00, 0x00, 0x2c, 0x00, 0x00, 0x00, 0x01, 0x00, 0x00, 0x00,
  0x02, 0x00, 0x00, 0x00, 0x18, 0x00, 0x00, 0x00, 0x73, 0x65, 0x71, 0x75,
  0x65, 0x6e, 0x74, 0x69, 0x61, 0x6c, 0x2f, 0x66, 0x6c, 0x61, 0x74, 0x74,
  0x65, 0x6e, 0x2f, 0x43, 0x6f, 0x6e, 0x73, 0x74, 0x00, 0x00, 0x00, 0x00,
  0xa4, 0xfe, 0xff, 0xff, 0x9a, 0xff, 0xff, 0xff, 0x04, 0x00, 0x00, 0x00,
  0x08, 0x00, 0x00, 0x00, 0xc1, 0x30, 0xa6, 0xbf, 0xbe, 0x30, 0xa6, 0x3f,
  0x0a, 0xff, 0xff, 0xff, 0x10, 0x00, 0x00, 0x00, 0x03, 0x00, 0x00, 0x00,
  0x10, 0x00, 0x00, 0x00, 0x3c, 0x00, 0x00, 0x00, 0x01, 0x00, 0x00, 0x00,
  0x02, 0x00, 0x00, 0x00, 0x29, 0x00, 0x00, 0x00, 0x73, 0x65, 0x71, 0x75,
  0x65, 0x6e, 0x74, 0x69, 0x61, 0x6c, 0x2f, 0x64, 0x65, 0x6e, 0x73, 0x65,
  0x5f, 0x31, 0x2f, 0x42, 0x69, 0x61, 0x73, 0x41, 0x64, 0x64, 0x2f, 0x52,
  0x65, 0x61, 0x64, 0x56, 0x61, 0x72, 0x69, 0x61, 0x62, 0x6c, 0x65, 0x4f,
  0x70, 0x00, 0x00, 0x00, 0x60, 0xff, 0xff, 0xff, 0x00, 0x00, 0x06, 0x00,
  0x08, 0x00, 0x04, 0x00, 0x06, 0x00, 0x00, 0x00, 0x04, 0x00, 0x00, 0x00,
  0x40, 0x00, 0x00, 0x00, 0x76, 0x09, 0xbe, 0xbd, 0xbe, 0xaa, 0xe0, 0xb9,
  0x93, 0xe2, 0x4c, 0xbf, 0x2b, 0x62, 0x3d, 0x3e, 0x51, 0x8c, 0x87, 0x3e,
  0xe9, 0xa2, 0x1b, 0x3e, 0xad, 0x78, 0xdc, 0xbe, 0x5a, 0x3c, 0xce, 0xbd,
  0x04, 0x5a, 0x4e, 0x3e, 0xf2, 0xb8, 0x45, 0xbe, 0x04, 0xda, 0x52, 0x3d,
  0xa0, 0x97, 0x9e, 0xbd, 0xb2, 0x98, 0x86, 0x3e, 0x88, 0xd9, 0xd9, 0xbe,
  0xe9, 0x26, 0x55, 0xbf, 0x67, 0xf6, 0x17, 0x3f, 0xae, 0xff, 0xff, 0xff,
  0x10, 0x00, 0x00, 0x00, 0x02, 0x00, 0x00, 0x00, 0x10, 0x00, 0x00, 0x00,
  0x3c, 0x00, 0x00, 0x00, 0x01, 0x00, 0x00, 0x00, 0x10, 0x00, 0x00, 0x00,
  0x27, 0x00, 0x00, 0x00, 0x73, 0x65, 0x71, 0x75, 0x65, 0x6e, 0x74, 0x69,
  0x61, 0x6c, 0x2f, 0x64, 0x65, 0x6e, 0x73, 0x65, 0x2f, 0x42, 0x69, 0x61,
  0x73, 0x41, 0x64, 0x64, 0x2f, 0x52, 0x65, 0x61, 0x64, 0x56, 0x61, 0x72,
  0x69, 0x61, 0x62, 0x6c, 0x65, 0x4f, 0x70, 0x00, 0x04, 0x00, 0x06, 0x00,
  0x04, 0x00, 0x00, 0x00, 0x00, 0x00, 0x0e, 0x00, 0x14, 0x00, 0x04, 0x00,
  0x00, 0x00, 0x08, 0x00, 0x0c, 0x00, 0x10, 0x00, 0x0e, 0x00, 0x00, 0x00,
  0x10, 0x00, 0x00, 0x00, 0x01, 0x00, 0x00, 0x00, 0x1c, 0x00, 0x00, 0x00,
  0x2c, 0x00, 0x00, 0x00, 0x04, 0x00, 0x00, 0x00, 0x01, 0x00, 0x00, 0x00,
  0x40, 0x00, 0x00, 0x00, 0x03, 0x00, 0x00, 0x00, 0x01, 0x00, 0x00, 0x00,
  0x0c, 0x00, 0x00, 0x00, 0x63, 0x6f, 0x6e, 0x76, 0x32, 0x64, 0x5f, 0x69,
  0x6e, 0x70, 0x75, 0x74, 0x00, 0x00, 0x00, 0x00, 0xfc, 0xff, 0xff, 0xff,
  0x04, 0x00, 0x04, 0x00, 0x04, 0x00, 0x00, 0x00




};


unsigned int model_tflite_len = 12248;// Fill the int in `src/model.cc` here